unsigned char model_pred_tflite[] = {
  0x1c, 0x00, 0x00, 0x00, 0x54, 0x46, 0x4c, 0x33, 0x14, 0x00, 0x20, 0x00,
  0x1c, 0x00, 0x18, 0x00, 0x14, 0x00, 0x10, 0x00, 0x0c, 0x00, 0x00, 0x00,
  0x08, 0x00, 0x04, 0x00, 0x14, 0x00, 0x00, 0x00, 0x1c, 0x00, 0x00, 0x00,
  0x90, 0x00, 0x00, 0x00, 0xe8, 0x00, 0x00, 0x00, 0x80, 0x16, 0x00, 0x00,
  0x90, 0x16, 0x00, 0x00, 0x60, 0x1e, 0x00, 0x00, 0x03, 0x00, 0x00, 0x00,
  0x01, 0x00, 0x00, 0x00, 0x10, 0x00, 0x00, 0x00, 0x00, 0x00, 0x0a, 0x00,
  0x10, 0x00, 0x0c, 0x00, 0x08, 0x00, 0x04, 0x00, 0x0a, 0x00, 0x00, 0x00,
  0x0c, 0x00, 0x00, 0x00, 0x1c, 0x00, 0x00, 0x00, 0x38, 0x00, 0x00, 0x00,
  0x0f, 0x00, 0x00, 0x00, 0x73, 0x65, 0x72, 0x76, 0x69, 0x6e, 0x67, 0x5f,
  0x64, 0x65, 0x66, 0x61, 0x75, 0x6c, 0x74, 0x00, 0x01, 0x00, 0x00, 0x00,
  0x04, 0x00, 0x00, 0x00, 0x98, 0xff, 0xff, 0xff, 0x0f, 0x00, 0x00, 0x00,
  0x04, 0x00, 0x00, 0x00, 0x07, 0x00, 0x00, 0x00, 0x64, 0x65, 0x6e, 0x73,
  0x65, 0x5f, 0x34, 0x00, 0x01, 0x00, 0x00, 0x00, 0x04, 0x00, 0x00, 0x00,
  0x4a, 0xea, 0xff, 0xff, 0x04, 0x00, 0x00, 0x00, 0x0b, 0x00, 0x00, 0x00,
  0x64, 0x65, 0x6e, 0x73, 0x65, 0x5f, 0x69, 0x6e, 0x70, 0x75, 0x74, 0x00,
  0x02, 0x00, 0x00, 0x00, 0x34, 0x00, 0x00, 0x00, 0x04, 0x00, 0x00, 0x00,
  0xdc, 0xff, 0xff, 0xff, 0x12, 0x00, 0x00, 0x00, 0x04, 0x00, 0x00, 0x00,
  0x13, 0x00, 0x00, 0x00, 0x43, 0x4f, 0x4e, 0x56, 0x45, 0x52, 0x53, 0x49,
  0x4f, 0x4e, 0x5f, 0x4d, 0x45, 0x54, 0x41, 0x44, 0x41, 0x54, 0x41, 0x00,
  0x08, 0x00, 0x0c, 0x00, 0x08, 0x00, 0x04, 0x00, 0x08, 0x00, 0x00, 0x00,
  0x11, 0x00, 0x00, 0x00, 0x04, 0x00, 0x00, 0x00, 0x13, 0x00, 0x00, 0x00,
  0x6d, 0x69, 0x6e, 0x5f, 0x72, 0x75, 0x6e, 0x74, 0x69, 0x6d, 0x65, 0x5f,
  0x76, 0x65, 0x72, 0x73, 0x69, 0x6f, 0x6e, 0x00, 0x13, 0x00, 0x00, 0x00,
  0x94, 0x15, 0x00, 0x00, 0x8c, 0x15, 0x00, 0x00, 0x3c, 0x15, 0x00, 0x00,
  0xa4, 0x14, 0x00, 0x00, 0x54, 0x14, 0x00, 0x00, 0x30, 0x14, 0x00, 0x00,
  0x08, 0x14, 0x00, 0x00, 0xb0, 0x13, 0x00, 0x00, 0x20, 0x12, 0x00, 0x00,
  0x10, 0x0a, 0x00, 0x00, 0x00, 0x02, 0x00, 0x00, 0xb0, 0x00, 0x00, 0x00,
  0xa8, 0x00, 0x00, 0x00, 0xa0, 0x00, 0x00, 0x00, 0x98, 0x00, 0x00, 0x00,
  0x90, 0x00, 0x00, 0x00, 0x88, 0x00, 0x00, 0x00, 0x68, 0x00, 0x00, 0x00,
  0x04, 0x00, 0x00, 0x00, 0x0e, 0xeb, 0xff, 0xff, 0x04, 0x00, 0x00, 0x00,
  0x54, 0x00, 0x00, 0x00, 0x0c, 0x00, 0x00, 0x00, 0x08, 0x00, 0x0e, 0x00,
  0x08, 0x00, 0x04, 0x00, 0x08, 0x00, 0x00, 0x00, 0x10, 0x00, 0x00, 0x00,
  0x24, 0x00, 0x00, 0x00, 0x00, 0x00, 0x06, 0x00, 0x08, 0x00, 0x04, 0x00,
  0x06, 0x00, 0x00, 0x00, 0x04, 0x00, 0x00, 0x00, 0x00, 0x00, 0x00, 0x00,
  0x00, 0x00, 0x0a, 0x00, 0x10, 0x00, 0x0c, 0x00, 0x08, 0x00, 0x04, 0x00,
  0x0a, 0x00, 0x00, 0x00, 0x02, 0x00, 0x00, 0x00, 0x02, 0x00, 0x00, 0x00,
  0x04, 0x00, 0x00, 0x00, 0x06, 0x00, 0x00, 0x00, 0x32, 0x2e, 0x31, 0x34,
  0x2e, 0x30, 0x00, 0x00, 0x6e, 0xeb, 0xff, 0xff, 0x04, 0x00, 0x00, 0x00,
  0x10, 0x00, 0x00, 0x00, 0x31, 0x2e, 0x35, 0x2e, 0x30, 0x00, 0x00, 0x00,
  0x00, 0x00, 0x00, 0x00, 0x00, 0x00, 0x00, 0x00, 0x80, 0xe3, 0xff, 0xff,
  0x84, 0xe3, 0xff, 0xff, 0x88, 0xe3, 0xff, 0xff, 0x8c, 0xe3, 0xff, 0xff,
  0x90, 0xe3, 0xff, 0xff, 0x9e, 0xeb, 0xff, 0xff, 0x04, 0x00, 0x00, 0x00,
  0x40, 0x01, 0x00, 0x00, 0x02, 0xdc, 0xbe, 0xbc, 0x32, 0x4e, 0xd1, 0x3e,
  0xd5, 0x81, 0x3e, 0x3c, 0xd4, 0x27, 0x27, 0xbf, 0x87, 0xec, 0x1e, 0x3e,
  0x99, 0x97, 0x37, 0x3e, 0x12, 0x80, 0xdb, 0x3e, 0xc1, 0x3f, 0x0b, 0xbf,
  0x81, 0xbe, 0xff, 0xbe, 0xe5, 0xb3, 0x29, 0x3f, 0x5b, 0x57, 0x07, 0x3f,
  0xfb, 0x03, 0x8f, 0x3e, 0x54, 0x2c, 0xb2, 0xbe, 0x94, 0xa6, 0x57, 0xbd,
  0xd8, 0x5d, 0x85, 0x3e, 0x69, 0xf9, 0xf2, 0x3b, 0x96, 0x2f, 0xba, 0x3b,
  0x32, 0x4e, 0xd1, 0x3e, 0xbe, 0x4a, 0x10, 0xbe, 0xd4, 0x27, 0x27, 0xbf,
  0x87, 0xec, 0x1e, 0x3e, 0x99, 0x97, 0x37, 0x3e, 0x12, 0x80, 0xdb, 0x3e,
  0xc1, 0x3f, 0x0b, 0xbf, 0x81, 0xbe, 0xff, 0xbe, 0xe5, 0xb3, 0x29, 0x3f,
  0x5b, 0x57, 0x07, 0x3f, 0xfb, 0x03, 0x8f, 0x3e, 0x54, 0x2c, 0xb2, 0xbe,
  0x94, 0xa6, 0x57, 0xbd, 0xd8, 0x5d, 0x85, 0x3e, 0x54, 0x31, 0xee, 0x3b,
  0x2e, 0xa0, 0x7f, 0x3b, 0x32, 0x4e, 0xd1, 0x3e, 0xae, 0x0b, 0xed, 0x3e,
  0xd4, 0x27, 0x27, 0xbf, 0x87, 0xec, 0x1e, 0x3e, 0x99, 0x97, 0x37, 0x3e,
  0x12, 0x80, 0xdb, 0x3e, 0xc1, 0x3f, 0x0b, 0xbf, 0x81, 0xbe, 0xff, 0xbe,
  0xe5, 0xb3, 0x29, 0x3f, 0x5b, 0x57, 0x07, 0x3f, 0xfb, 0x03, 0x8f, 0x3e,
  0x54, 0x2c, 0xb2, 0xbe, 0x94, 0xa6, 0x57, 0xbd, 0xd8, 0x5d, 0x85, 0x3e,
  0x18, 0x5a, 0xee, 0x3b, 0xe0, 0x02, 0xec, 0x3c, 0x32, 0x4e, 0xd1, 0x3e,
  0xd9, 0x6e, 0x8b, 0x3e, 0xd4, 0x27, 0x27, 0xbf, 0x87, 0xec, 0x1e, 0x3e,
  0x99, 0x97, 0x37, 0x3e, 0x12, 0x80, 0xdb, 0x3e, 0xc1, 0x3f, 0x0b, 0xbf,
  0x81, 0xbe, 0xff, 0xbe, 0xe5, 0xb3, 0x29, 0x3f, 0x5b, 0x57, 0x07, 0x3f,
  0xfb, 0x03, 0x8f, 0x3e, 0x54, 0x2c, 0xb2, 0xbe, 0x94, 0xa6, 0x57, 0xbd,
  0xd8, 0x5d, 0x85, 0x3e, 0xad, 0x75, 0xf0, 0x3b, 0x2f, 0x93, 0x8d, 0x3c,
  0x32, 0x4e, 0xd1, 0x3e, 0x5b, 0x98, 0xdd, 0xbd, 0xd4, 0x27, 0x27, 0xbf,
  0x87, 0xec, 0x1e, 0x3e, 0x99, 0x97, 0x37, 0x3e, 0x12, 0x80, 0xdb, 0x3e,
  0xc1, 0x3f, 0x0b, 0xbf, 0x81, 0xbe, 0xff, 0xbe, 0xe5, 0xb3, 0x29, 0x3f,
  0x5b, 0x57, 0x07, 0x3f, 0xfb, 0x03, 0x8f, 0x3e, 0x54, 0x2c, 0xb2, 0xbe,
  0x94, 0xa6, 0x57, 0xbd, 0xd8, 0x5d, 0x85, 0x3e, 0xa0, 0x9b, 0xee, 0x3b,
  0xea, 0xec, 0xff, 0xff, 0x04, 0x00, 0x00, 0x00, 0x00, 0x08, 0x00, 0x00,
  0x93, 0x7f, 0x90, 0xbc, 0x88, 0x2c, 0xdc, 0xbe, 0x9e, 0xf6, 0x67, 0xbf,
  0xd4, 0x55, 0x92, 0x3d, 0xbb, 0x00, 0x7d, 0xbd, 0xd4, 0xcd, 0x1b, 0xbd,
  0x6f, 0x92, 0xc5, 0xbe, 0xbd, 0x1d, 0x6c, 0x3e, 0x6a, 0x5e, 0x5f, 0xb9,
  0xe3, 0x88, 0xb8, 0x3b, 0xeb, 0x89, 0xeb, 0xbe, 0xa1, 0x54, 0x69, 0xbf,
  0xd7, 0xab, 0x42, 0x3d, 0x68, 0xdd, 0x1a, 0x3a, 0x87, 0x5b, 0x0d, 0x3d,
  0x83, 0xa8, 0x3f, 0x3e, 0x1b, 0xce, 0x2d, 0xbf, 0xa9, 0xc8, 0xb2, 0xbe,
  0xaa, 0x63, 0xc9, 0xbd, 0x4a, 0x2f, 0xb8, 0xbe, 0xd0, 0xf9, 0x71, 0xbe,
  0xf0, 0x22, 0xa8, 0xbc, 0x3f, 0xed, 0xdd, 0xbd, 0x11, 0x1b, 0x64, 0xbe,
  0x78, 0xf0, 0xcb, 0xbd, 0xd9, 0xf0, 0x28, 0xbd, 0xb7, 0x00, 0x16, 0xbe,
  0x03, 0x6d, 0x0a, 0x3e, 0x5d, 0x5a, 0x91, 0x3d, 0xe1, 0xd8, 0x05, 0xbf,
  0x2c, 0x2b, 0x91, 0x3d, 0xbd, 0x97, 0xa9, 0xbe, 0xd4, 0x9b, 0x43, 0x3e,
  0x12, 0x66, 0x0f, 0xbf, 0x33, 0x1a, 0x8b, 0xbf, 0x53, 0x1d, 0x58, 0x3e,
  0xed, 0x3f, 0xb8, 0xbf, 0xae, 0x97, 0x66, 0xbe, 0x40, 0x5e, 0x69, 0x3e,
  0xc4, 0xd5, 0xbe, 0xbd, 0x2d, 0xf1, 0x8e, 0xc0, 0xe4, 0x76, 0x0f, 0xc0,
  0x0e, 0x0d, 0x50, 0xc0, 0x8f, 0xff, 0xf0, 0xc0, 0x2e, 0xd1, 0x47, 0x3e,
  0x80, 0x7a, 0xba, 0xbb, 0x23, 0x44, 0xcd, 0x3f, 0x00, 0xbf, 0x15, 0xc0,
  0x59, 0x5f, 0x6c, 0xc0, 0x49, 0xed, 0xf7, 0xbf, 0x02, 0xff, 0x02, 0xbf,
  0x20, 0xd7, 0x46, 0xbf, 0xd2, 0x90, 0x08, 0xbf, 0xf5, 0x49, 0x6e, 0xc0,
  0xbb, 0xb6, 0x76, 0xc0, 0x7f, 0xb7, 0x60, 0x3e, 0x27, 0x08, 0x82, 0x40,
  0x66, 0xcd, 0x62, 0xc0, 0xc6, 0xaa, 0x64, 0xc0, 0x20, 0xa2, 0x4e, 0x3e,
  0x0e, 0x2d, 0x03, 0x3f, 0x25, 0xac, 0x17, 0xbf, 0x82, 0x1d, 0x4b, 0xc0,
  0x8b, 0xa7, 0xa0, 0xbf, 0x3f, 0x12, 0x8d, 0x3e, 0x21, 0x6c, 0x29, 0x3d,
  0x42, 0xcc, 0xdd, 0xbe, 0x5b, 0x29, 0x0d, 0xbe, 0x77, 0xa4, 0xda, 0xbd,
  0x30, 0xc7, 0x29, 0x3d, 0xad, 0xd9, 0x68, 0xbe, 0x3d, 0x2c, 0xee, 0xbd,
  0xbd, 0xbc, 0x5a, 0x3e, 0x18, 0x93, 0x93, 0xbe, 0x48, 0x73, 0xe4, 0x3d,
  0xb9, 0x3b, 0xed, 0xbd, 0x49, 0xd2, 0xad, 0x3e, 0x04, 0xbf, 0x00, 0xbf,
  0x3a, 0xed, 0xf6, 0xbd, 0x76, 0x53, 0x6b, 0xbe, 0x48, 0x32, 0x14, 0x3c,
  0x80, 0xb3, 0x7d, 0xbe, 0x27, 0x74, 0xae, 0xbe, 0x74, 0x44, 0x99, 0xbe,
  0xa7, 0xd5, 0x81, 0xbe, 0x6b, 0x6c, 0xb2, 0xbe, 0x83, 0x55, 0x09, 0xbe,
  0xde, 0x62, 0xa5, 0x3c, 0xa0, 0x4a, 0x19, 0xbe, 0x3e, 0xee, 0x21, 0xbe,
  0x29, 0xce, 0xd2, 0x3d, 0xaa, 0xc2, 0x1b, 0xbe, 0x00, 0x6d, 0x23, 0x3e,
  0x6a, 0x4d, 0xeb, 0xbd, 0x49, 0x97, 0x92, 0xbe, 0x66, 0xbd, 0x9d, 0xbe,
  0xb5, 0x05, 0x92, 0xbe, 0xef, 0xc2, 0xb8, 0x3f, 0xb0, 0x67, 0xcd, 0xbf,
  0x82, 0x6a, 0x9a, 0xbe, 0x8e, 0x90, 0x90, 0xbe, 0xc0, 0xb3, 0xcd, 0x3c,
  0x43, 0x83, 0x49, 0x3e, 0xcb, 0x2f, 0xf3, 0x3d, 0xb9, 0x1c, 0x89, 0x3f,
  0x88, 0x09, 0xac, 0x3d, 0xaa, 0xc1, 0x79, 0xbf, 0x50, 0xd4, 0xc5, 0x3f,
  0x4c, 0x67, 0x3c, 0x3e, 0xf9, 0x2c, 0x82, 0xbf, 0x24, 0xd4, 0x99, 0xbf,
  0xf0, 0x4e, 0xd5, 0xbe, 0xf2, 0x4c, 0xe4, 0x3d, 0x42, 0x2c, 0x4e, 0xbe,
  0xc1, 0x1a, 0xbf, 0x3e, 0x0a, 0x8a, 0xb1, 0xbf, 0x0d, 0x7c, 0xf5, 0xbe,
  0x6c, 0x2c, 0xde, 0xbe, 0x2f, 0xf1, 0x57, 0xbf, 0x4b, 0x63, 0x2f, 0x3e,
  0x02, 0x78, 0x2e, 0x3e, 0xed, 0x8e, 0xa8, 0xbe, 0x77, 0xd9, 0x88, 0x3f,
  0x3b, 0xe3, 0x98, 0x3e, 0x7d, 0xdf, 0xec, 0xbe, 0xe9, 0x47, 0xec, 0x3e,
  0x42, 0x59, 0x7f, 0xc0, 0x32, 0xb3, 0xa7, 0xbe, 0xf4, 0xee, 0xb5, 0xbd,
  0xa6, 0xc3, 0x4b, 0x40, 0x86, 0x15, 0xac, 0x3e, 0x2e, 0x2b, 0x3f, 0xbf,
  0x23, 0xf9, 0x08, 0xc0, 0x33, 0x71, 0x98, 0x3a, 0xa9, 0x1d, 0x0e, 0x3d,
  0xcd, 0x9d, 0x3c, 0xbf, 0x3b, 0x4a, 0x45, 0xc0, 0x01, 0x8c, 0x1b, 0x3f,
  0x69, 0x62, 0x08, 0xc0, 0xed, 0x3a, 0x7e, 0xbf, 0x67, 0xfc, 0x13, 0x3d,
  0xc1, 0xd2, 0x1c, 0xc0, 0x84, 0x70, 0x2c, 0xc1, 0xeb, 0xc7, 0x03, 0xbf,
  0x38, 0xdd, 0xbd, 0x3f, 0xfd, 0xc2, 0x10, 0x3c, 0x4d, 0xe9, 0x1d, 0x3f,
  0xa2, 0xbc, 0xb5, 0xc0, 0xa5, 0x4f, 0xe2, 0xbf, 0x25, 0x2d, 0x73, 0xc0,
  0xfa, 0x31, 0x62, 0xbf, 0x47, 0xac, 0xff, 0xbc, 0xba, 0xce, 0x43, 0x3f,
  0x3e, 0x70, 0x08, 0x3f, 0x21, 0xa2, 0xf6, 0x3d, 0x50, 0xe6, 0xf5, 0x3d,
  0xb6, 0x6a, 0x89, 0xbf, 0x43, 0x3a, 0x34, 0x3f, 0x2b, 0x4f, 0x9e, 0x3f,
  0x58, 0x72, 0x18, 0xbf, 0xd4, 0xee, 0x43, 0x3b, 0xd9, 0xe6, 0xbc, 0xbd,
  0x84, 0xb3, 0xd4, 0xc0, 0x4e, 0x31, 0x25, 0x3d, 0x4d, 0x6a, 0xbe, 0xbf,
  0x68, 0xa7, 0x88, 0x3c, 0x37, 0x8f, 0x91, 0xbe, 0xff, 0x99, 0x85, 0xbe,
  0xd9, 0x05, 0xf3, 0xbe, 0xc8, 0xda, 0x9b, 0x3e, 0x23, 0x37, 0x3e, 0x3f,
  0xf8, 0xb0, 0xb5, 0x3f, 0x38, 0x16, 0xaf, 0xbe, 0xe2, 0x9e, 0xdc, 0xbd,
  0x0b, 0x82, 0x01, 0x3f, 0xa3, 0x56, 0xaa, 0x3d, 0xd1, 0x4c, 0xb2, 0x3f,
  0xa2, 0xba, 0xbc, 0xbe, 0xc7, 0x8f, 0x1b, 0xbf, 0x55, 0x8b, 0x5f, 0x3d,
  0x60, 0x05, 0xeb, 0xbf, 0x52, 0xe8, 0x4c, 0xc0, 0xa6, 0x18, 0x96, 0x3d,
  0x30, 0xd7, 0x49, 0x3e, 0x15, 0xbf, 0x86, 0xbd, 0x91, 0xaf, 0x5f, 0x3f,
  0x79, 0x21, 0xe6, 0xbf, 0x28, 0x11, 0x6a, 0x3c, 0x7c, 0xec, 0xe7, 0x3c,
  0x6c, 0x86, 0x63, 0xc0, 0x71, 0xa2, 0x3b, 0xc0, 0x45, 0xd9, 0x16, 0x40,
  0x10, 0x97, 0xe0, 0xbb, 0x31, 0x75, 0xad, 0x3e, 0x4f, 0x3f, 0x26, 0x3f,
  0x3a, 0x7c, 0xa5, 0xbe, 0xdc, 0xf4, 0x12, 0xbe, 0x07, 0xf4, 0xa5, 0x3e,
  0x2b, 0xed, 0x3c, 0xbd, 0xeb, 0xdc, 0xc0, 0xbd, 0x63, 0x14, 0x15, 0x3e,
  0x25, 0xac, 0x2f, 0xbf, 0x7c, 0xaa, 0x18, 0x3f, 0x85, 0xb1, 0x21, 0xbf,
  0xa7, 0xce, 0x52, 0xbe, 0x53, 0xb5, 0x19, 0xc0, 0x8f, 0x7e, 0x3e, 0xc0,
  0x8a, 0x6e, 0xea, 0xbe, 0xf3, 0x3f, 0x7a, 0x3f, 0xe3, 0xf2, 0x19, 0xbc,
  0xbd, 0x90, 0x8a, 0xbf, 0x08, 0xb0, 0x6f, 0xbf, 0x28, 0x15, 0xc8, 0xbe,
  0x1a, 0x7a, 0x3a, 0xc0, 0xfc, 0x7d, 0x58, 0xc0, 0xce, 0x5f, 0xea, 0x3d,
  0x03, 0x30, 0xda, 0xbf, 0xdd, 0xdd, 0xc8, 0xbf, 0x2d, 0x94, 0x94, 0x3f,
  0x68, 0x09, 0x81, 0xbd, 0x48, 0xa5, 0x8e, 0xc0, 0x81, 0xff, 0x70, 0xbe,
  0xb0, 0xd9, 0x7b, 0xbf, 0xc2, 0x47, 0x70, 0xbe, 0x0e, 0x5f, 0x3f, 0x3e,
  0xf6, 0x8f, 0x5d, 0x3f, 0x83, 0x23, 0x99, 0x3e, 0xac, 0x70, 0xcb, 0xbe,
  0x9a, 0xfd, 0x57, 0xbe, 0x52, 0xeb, 0x36, 0x3e, 0xf8, 0xe0, 0x40, 0xbe,
  0xa4, 0x0b, 0xdf, 0xbd, 0xd8, 0x8f, 0x0c, 0xbf, 0xbb, 0x2b, 0x8a, 0x3f,
  0x02, 0x8f, 0xa5, 0xbf, 0x8d, 0x78, 0xd4, 0x3e, 0x97, 0x92, 0x87, 0xbe,
  0xa3, 0x48, 0x90, 0x3e, 0xef, 0xd4, 0x72, 0xbe, 0x7f, 0x8f, 0x99, 0x3f,
  0x4e, 0xc8, 0xb8, 0x3e, 0x70, 0xd3, 0x75, 0xbf, 0xa7, 0xa8, 0x9f, 0xbf,
  0x52, 0x0a, 0x0c, 0xc0, 0x79, 0xc7, 0x4a, 0xbc, 0x8d, 0xda, 0x36, 0x3e,
  0x85, 0xea, 0x05, 0x3f, 0x46, 0x08, 0x1e, 0x3e, 0x1c, 0xaf, 0xc5, 0xbf,
  0xb8, 0x66, 0x04, 0xc0, 0xbe, 0x09, 0x4b, 0x3f, 0xf3, 0x93, 0x01, 0x3e,
  0x2a, 0x73, 0xd9, 0xbe, 0xd0, 0xc5, 0x3c, 0xbf, 0xcf, 0x41, 0x2a, 0x3d,
  0x40, 0x92, 0x61, 0xbf, 0xa4, 0x4c, 0x44, 0xbe, 0xe8, 0x2e, 0x29, 0xbf,
  0x48, 0x06, 0x0d, 0x3f, 0xac, 0xdb, 0x90, 0x3e, 0xf4, 0x90, 0xc0, 0x3b,
  0xfd, 0x66, 0x4c, 0xbe, 0xa4, 0x62, 0x0b, 0x3d, 0x3d, 0xfa, 0xdd, 0x3e,
  0xff, 0x41, 0x33, 0xbe, 0xd4, 0x46, 0x4b, 0xbe, 0x27, 0xbc, 0xe0, 0xbc,
  0x3a, 0x4f, 0x37, 0x3f, 0x0c, 0x67, 0x66, 0x3d, 0x7f, 0xf6, 0x0b, 0xbf,
  0x24, 0x9c, 0xd2, 0xbd, 0x49, 0xe2, 0xc6, 0x3f, 0x9f, 0x58, 0x11, 0x3f,
  0xb3, 0x76, 0x6e, 0x3d, 0x4f, 0x26, 0x49, 0xbf, 0x9c, 0xac, 0x8f, 0xbe,
  0x0b, 0xe2, 0x00, 0xbe, 0xfc, 0x1d, 0xb6, 0xbd, 0x13, 0xa5, 0x37, 0x3e,
  0xf1, 0xd7, 0x22, 0xbd, 0xa4, 0x35, 0x0b, 0xbd, 0x49, 0x9b, 0xc7, 0xbe,
  0xd0, 0x10, 0xae, 0x3e, 0x99, 0xfb, 0x55, 0x3e, 0xd7, 0xb5, 0x68, 0x3e,
  0x8d, 0x48, 0xff, 0x3d, 0xca, 0xef, 0xe9, 0x3e, 0xf1, 0x2c, 0x75, 0x3e,
  0x76, 0x56, 0x9a, 0x3e, 0x8b, 0x1a, 0x09, 0xc1, 0xb0, 0xf9, 0x33, 0xbf,
  0xfe, 0xb9, 0x2a, 0xbf, 0xae, 0x00, 0x0d, 0xbe, 0x2c, 0x03, 0x7a, 0xbe,
  0x00, 0xf1, 0xc0, 0xba, 0x05, 0xad, 0xc7, 0x3c, 0xde, 0xab, 0xb0, 0xbf,
  0xa0, 0xe4, 0xf6, 0xbe, 0xa5, 0x45, 0x16, 0xbf, 0xf7, 0xd1, 0xcd, 0x3f,
  0x64, 0x81, 0x7e, 0xbe, 0x50, 0x67, 0x78, 0xbe, 0xc1, 0x8a, 0x2a, 0xbd,
  0xa9, 0xe9, 0x66, 0xc0, 0x49, 0xef, 0x0b, 0xc0, 0x61, 0xc5, 0xb6, 0xbf,
  0x91, 0xc4, 0x6a, 0xbf, 0x8d, 0x7d, 0x07, 0xbe, 0x8d, 0x24, 0x14, 0xbe,
  0x8a, 0x98, 0x1a, 0xc0, 0x69, 0x76, 0x8c, 0xc0, 0xb5, 0x6d, 0x9b, 0xbb,
  0x01, 0x33, 0xad, 0xbf, 0x04, 0xaa, 0x0e, 0xc1, 0x06, 0x69, 0xab, 0x3e,
  0x00, 0x97, 0x39, 0x3e, 0x62, 0x73, 0x08, 0xbf, 0x73, 0xf7, 0x8a, 0x3e,
  0x0e, 0x6a, 0x44, 0xbe, 0xe0, 0xde, 0x9b, 0x3f, 0xe1, 0x60, 0x85, 0xbd,
  0x19, 0xb2, 0xbc, 0x3e, 0xff, 0x83, 0xb2, 0xc0, 0xd3, 0x47, 0xfe, 0xbd,
  0x0c, 0x56, 0xd5, 0xbf, 0x41, 0xb5, 0x17, 0xbd, 0xd6, 0xc2, 0x57, 0xbd,
  0xf1, 0x9a, 0x08, 0x3f, 0x44, 0x5b, 0x90, 0xbf, 0xd7, 0xf2, 0xc4, 0x3e,
  0x2e, 0x20, 0x00, 0x3e, 0x3b, 0xac, 0x88, 0x3f, 0x91, 0xf6, 0x9e, 0xbe,
  0xa8, 0x84, 0x3c, 0xc0, 0x77, 0x74, 0xa0, 0xc0, 0x1c, 0xa6, 0xf3, 0xbf,
  0xa2, 0xc1, 0x40, 0x3f, 0xb1, 0xb6, 0xdd, 0xbe, 0x32, 0x0e, 0x0d, 0xc1,
  0xb5, 0xfa, 0x57, 0xc0, 0x2a, 0x42, 0x4e, 0xbe, 0xf6, 0xd0, 0x0c, 0x3f,
  0xe3, 0x3f, 0xd1, 0xbf, 0x55, 0xaf, 0x7c, 0xbe, 0x5c, 0x7a, 0x21, 0x3f,
  0x7d, 0xed, 0xb7, 0xbf, 0xbd, 0x36, 0x5e, 0x3f, 0xd7, 0x60, 0x8a, 0xbe,
  0xcf, 0x71, 0xe0, 0xbe, 0x67, 0xe9, 0x68, 0xbf, 0xb6, 0xdb, 0xf4, 0x3f,
  0x2f, 0xe7, 0x42, 0x3f, 0x21, 0x32, 0x57, 0x3e, 0xc7, 0xbf, 0xb4, 0x3f,
  0x39, 0x20, 0xbe, 0x3d, 0xb5, 0xaf, 0xf6, 0xbe, 0x59, 0xae, 0xcd, 0xbe,
  0x79, 0xdd, 0x93, 0x3d, 0x02, 0x8c, 0x4a, 0x3e, 0x97, 0xdc, 0xc9, 0x3e,
  0xe8, 0x42, 0x0e, 0xc0, 0x0f, 0x2f, 0xad, 0x3e, 0x37, 0xbc, 0x4d, 0x3d,
  0xc4, 0x64, 0x05, 0x3f, 0xc1, 0x79, 0x7a, 0xbe, 0x6d, 0x13, 0x4b, 0x3f,
  0x66, 0x8e, 0xc5, 0xbf, 0x98, 0x08, 0xff, 0x3f, 0x95, 0x74, 0x1c, 0xbf,
  0x87, 0x68, 0x89, 0xbf, 0xac, 0xd6, 0x81, 0xc0, 0xef, 0x8e, 0xcf, 0x3c,
  0xe7, 0x18, 0x4e, 0xbe, 0x9a, 0xdc, 0x00, 0xbd, 0xce, 0x96, 0x23, 0xbf,
  0xcb, 0xd1, 0xb6, 0x3d, 0x51, 0x35, 0xba, 0x3f, 0xa6, 0x27, 0x93, 0xbf,
  0x0e, 0x6c, 0xe2, 0x3f, 0x44, 0x96, 0x71, 0xbe, 0x89, 0x39, 0x05, 0x3e,
  0x22, 0x62, 0x3b, 0xc0, 0x03, 0x39, 0x73, 0xbe, 0x52, 0x4a, 0x82, 0x3f,
  0xa1, 0xda, 0xb4, 0x3e, 0xcd, 0xd1, 0x1d, 0x3d, 0x07, 0x80, 0x41, 0xbf,
  0x1b, 0x9b, 0x12, 0x3e, 0x2f, 0x77, 0xb4, 0x3e, 0x04, 0x7b, 0x87, 0x3e,
  0x81, 0x2c, 0x17, 0xbe, 0xd3, 0x12, 0x38, 0x3e, 0x50, 0x59, 0x4d, 0x3e,
  0x50, 0x45, 0x8b, 0x3f, 0x98, 0xd2, 0x63, 0x3e, 0xad, 0x59, 0x55, 0x3d,
  0x84, 0x52, 0xe7, 0xbd, 0x6c, 0xa2, 0x2a, 0x3e, 0x3e, 0xe5, 0x09, 0x3f,
  0x71, 0x75, 0x4c, 0xbf, 0x83, 0xb2, 0xa4, 0xbf, 0x47, 0x41, 0x29, 0xbf,
  0x6b, 0x9d, 0x83, 0x3c, 0x3d, 0xc0, 0xc1, 0xbf, 0x7f, 0x9d, 0x26, 0xbf,
  0xc0, 0xf1, 0x13, 0xbf, 0x4f, 0xb7, 0xb8, 0xbe, 0x3b, 0x96, 0x75, 0x3e,
  0x94, 0xd0, 0x5e, 0xbe, 0xea, 0x25, 0xb6, 0x3e, 0x9b, 0xc6, 0x34, 0xbe,
  0xcc, 0xf2, 0x34, 0xbc, 0x00, 0x10, 0xb8, 0xbf, 0x84, 0xbb, 0x6f, 0x3e,
  0xdf, 0xf0, 0x25, 0xbf, 0x58, 0xa9, 0xb7, 0xbd, 0xa6, 0xc3, 0x55, 0x3e,
  0x4e, 0xb1, 0x3b, 0x3e, 0xa4, 0x93, 0xe8, 0x3e, 0x47, 0xe7, 0x11, 0xbe,
  0xe5, 0xf1, 0xe2, 0xbe, 0x6c, 0x18, 0xd9, 0x3d, 0xc6, 0xd0, 0x74, 0xbe,
  0x5b, 0x43, 0x41, 0xbe, 0x88, 0x7e, 0x36, 0xba, 0x30, 0xc6, 0x42, 0xbe,
  0x85, 0x95, 0x6c, 0xbe, 0x11, 0xb6, 0x17, 0xbe, 0xd0, 0x4e, 0x0f, 0xbd,
  0x98, 0x7d, 0xcb, 0xbe, 0x20, 0x7a, 0x17, 0xbd, 0x10, 0xeb, 0x6a, 0xbe,
  0x87, 0x07, 0x31, 0xbe, 0x87, 0xdb, 0xa2, 0xbe, 0xa4, 0x81, 0xc5, 0xbe,
  0x5e, 0x22, 0x51, 0x3e, 0x96, 0x77, 0x8d, 0xbe, 0x1f, 0x28, 0x28, 0x3d,
  0x0f, 0x73, 0x42, 0x3e, 0x52, 0xae, 0x00, 0xbe, 0x7b, 0xb2, 0xdd, 0xbd,
  0x19, 0x97, 0xc4, 0xbd, 0x8e, 0x1c, 0x87, 0x3d, 0xfa, 0x61, 0x46, 0xbe,
  0xe2, 0x1d, 0x9a, 0xbd, 0xbb, 0x50, 0x3c, 0xbe, 0xd9, 0xa8, 0xc5, 0xbe,
  0x05, 0xba, 0x83, 0xbd, 0x4d, 0xe4, 0xc7, 0xbd, 0x66, 0x8f, 0x16, 0x3e,
  0xb4, 0xd0, 0x2b, 0xc0, 0x23, 0x6d, 0x8d, 0x3e, 0x26, 0x21, 0xde, 0x3e,
  0x58, 0xc1, 0x48, 0x3d, 0xb9, 0xcd, 0x83, 0xbc, 0xaa, 0xd1, 0x51, 0xbd,
  0x41, 0x67, 0x15, 0xc1, 0x18, 0xab, 0xa8, 0x3f, 0xcc, 0x20, 0x20, 0x3e,
  0x19, 0x32, 0x2e, 0x3e, 0x38, 0xfb, 0x89, 0xbe, 0x40, 0x30, 0x2b, 0xbf,
  0x40, 0x8d, 0xe7, 0xbf, 0x65, 0x64, 0xd1, 0xbf, 0x72, 0xd5, 0xa1, 0xbf,
  0xff, 0xb8, 0x1d, 0xbf, 0x2c, 0x63, 0x22, 0xbe, 0xec, 0xb1, 0x28, 0xc0,
  0x50, 0x78, 0x83, 0x3e, 0xca, 0x27, 0xde, 0xbf, 0x24, 0xb0, 0xfd, 0xbd,
  0xe4, 0xe7, 0x79, 0xbd, 0x10, 0xc9, 0x39, 0x3c, 0xc9, 0x30, 0x83, 0x40,
  0x3a, 0x01, 0x85, 0x3f, 0x10, 0xac, 0xa9, 0xbe, 0x0e, 0x16, 0x52, 0x3f,
  0x18, 0xff, 0x0d, 0xbe, 0xf3, 0xcd, 0xb1, 0xbd, 0xc5, 0x7b, 0xf9, 0xbf,
  0x0c, 0xba, 0x88, 0x3e, 0x1b, 0xb4, 0x6a, 0xbd, 0xe4, 0x68, 0xf1, 0xbe,
  0xdc, 0x06, 0x13, 0xbf, 0x63, 0x40, 0x8d, 0xbe, 0xbd, 0x51, 0x2f, 0x3e,
  0x25, 0x2e, 0x70, 0xbe, 0x0e, 0x48, 0xfc, 0x3e, 0x1b, 0xfe, 0x71, 0xbe,
  0x3b, 0xc1, 0xb1, 0xbe, 0xa6, 0x7e, 0xc0, 0xbe, 0x32, 0xa0, 0x8c, 0xbe,
  0x9d, 0x7c, 0xe2, 0x3d, 0xa9, 0x1d, 0xed, 0xbe, 0xdf, 0x04, 0x5c, 0x3e,
  0x17, 0xa8, 0xf4, 0x3d, 0x80, 0x7f, 0xb1, 0xbe, 0xca, 0xd4, 0x49, 0xbf,
  0x18, 0xd6, 0x95, 0xbe, 0xf3, 0x5a, 0x8c, 0xbe, 0xeb, 0x30, 0xb7, 0x3d,
  0x0d, 0x51, 0x46, 0x3e, 0x08, 0x82, 0xa5, 0xbe, 0x38, 0xef, 0x70, 0x3d,
  0xf2, 0xe0, 0x3b, 0xbf, 0x90, 0x14, 0xf7, 0x3e, 0x97, 0x25, 0xaa, 0xbc,
  0xb1, 0xdb, 0x22, 0xbe, 0x80, 0x9a, 0x84, 0x3e, 0x4f, 0x82, 0x4c, 0x3e,
  0xf6, 0x73, 0xca, 0x3d, 0x2b, 0x45, 0x12, 0x3d, 0xf6, 0xf4, 0xff, 0xff,
  0x04, 0x00, 0x00, 0x00, 0x00, 0x08, 0x00, 0x00, 0x48, 0x24, 0xb5, 0x3c,
  0xc9, 0x41, 0x93, 0xbe, 0xf3, 0x83, 0x86, 0xbe, 0xf1, 0x8b, 0xce, 0x3c,
  0x24, 0xab, 0x88, 0x3e, 0x2d, 0xee, 0x51, 0xbe, 0xe4, 0x7f, 0x0c, 0xbe,
  0x81, 0x2b, 0xf8, 0xbd, 0x19, 0x44, 0x33, 0xbe, 0x9a, 0x91, 0x7b, 0xbe,
  0x73, 0xf5, 0xd4, 0xbd, 0xfd, 0x65, 0x86, 0xbe, 0x6c, 0x6b, 0x8c, 0xbd,
  0x36, 0x88, 0xca, 0xbe, 0x07, 0xd8, 0xcc, 0x3d, 0x10, 0x55, 0x72, 0x3d,
  0x7f, 0x07, 0x7c, 0xbc, 0xd2, 0xbe, 0xc0, 0xbe, 0x0f, 0x70, 0x25, 0xbe,
  0x81, 0x15, 0x65, 0xbe, 0x10, 0xec, 0x91, 0x3f, 0x10, 0xa1, 0xa8, 0x3e,
  0x7c, 0x66, 0xcd, 0xbd, 0xc3, 0x88, 0x00, 0x3f, 0xf0, 0x99, 0xc9, 0x3f,
  0x30, 0x02, 0xbf, 0x3d, 0x08, 0x0f, 0x61, 0x3f, 0x12, 0xf1, 0x02, 0xbc,
  0xce, 0xe8, 0xc4, 0xbf, 0xed, 0xec, 0x9a, 0xbf, 0x53, 0x62, 0xb2, 0xbf,
  0xde, 0xba, 0x95, 0x3f, 0xea, 0xce, 0x1e, 0x3f, 0x4a, 0x56, 0xf7, 0xbf,
  0xb0, 0xa4, 0x12, 0xbd, 0x89, 0xad, 0xe7, 0x3f, 0x03, 0xca, 0x4e, 0xc0,
  0xdf, 0x8e, 0x8e, 0x3e, 0xef, 0x6e, 0x9c, 0xbe, 0x2c, 0x2b, 0x42, 0xc0,
  0x19, 0x34, 0x0f, 0x3e, 0xd1, 0xaa, 0x3a, 0x40, 0x98, 0xdc, 0x00, 0xbf,
  0x94, 0x55, 0xc7, 0xc0, 0xd0, 0xea, 0x37, 0x3f, 0xd8, 0x2c, 0x6c, 0x3f,
  0xfa, 0xa9, 0xcd, 0xbf, 0x11, 0x4c, 0x8e, 0x3f, 0x90, 0x05, 0xcc, 0x3e,
  0x36, 0xbe, 0xd1, 0xbd, 0x12, 0x62, 0x91, 0x3f, 0xb8, 0xdb, 0xb4, 0x3e,
  0xe5, 0x4a, 0xf6, 0x3e, 0x7b, 0x35, 0xa2, 0xbd, 0xed, 0x12, 0x3a, 0xbe,
  0xe1, 0xf6, 0x2e, 0x40, 0xeb, 0x11, 0x89, 0xbf, 0x6c, 0x6c, 0xea, 0x3e,
  0xe5, 0xe9, 0xa6, 0x3e, 0x7b, 0x9a, 0xc6, 0x3e, 0x36, 0xaf, 0x81, 0xc0,
  0x13, 0xc9, 0x47, 0xbe, 0x12, 0x57, 0xf9, 0xbe, 0x47, 0x48, 0xee, 0xbd,
  0xec, 0x8e, 0x9c, 0xbf, 0x48, 0xc4, 0x44, 0x3c, 0xaf, 0x4b, 0x9d, 0x3e,
  0xe2, 0x36, 0x46, 0x40, 0x2f, 0xf7, 0x57, 0xc0, 0xe5, 0x94, 0x35, 0xbf,
  0x8b, 0x0b, 0xef, 0x3d, 0xc1, 0x9c, 0x51, 0x3f, 0x96, 0x59, 0x58, 0xbf,
  0x11, 0x90, 0x32, 0x3e, 0x2c, 0x19, 0xb0, 0x3e, 0xb1, 0xf5, 0xea, 0xbe,
  0xaf, 0xf9, 0x0f, 0x40, 0xbd, 0x5b, 0x63, 0x3f, 0x00, 0x20, 0x9a, 0xc0,
  0x61, 0x63, 0x9f, 0x3f, 0x1a, 0x1a, 0xeb, 0xbe, 0x97, 0xe0, 0x80, 0xbe,
  0x96, 0xbf, 0xc0, 0xbe, 0x30, 0x3e, 0xe1, 0x3b, 0x6c, 0xe8, 0x6f, 0xbe,
  0x28, 0xfa, 0x92, 0xbe, 0x59, 0xde, 0xe3, 0xbe, 0x97, 0xfe, 0x85, 0xbe,
  0xc0, 0x13, 0x64, 0xbe, 0x45, 0xad, 0x15, 0xbb, 0x68, 0x2f, 0x16, 0xbe,
  0xf2, 0x57, 0x7c, 0xbd, 0xd3, 0xc1, 0x99, 0x3d, 0x97, 0x9f, 0xbc, 0x3d,
  0x50, 0x46, 0x77, 0x3b, 0x4e, 0x25, 0xa6, 0xbe, 0x11, 0xc4, 0xcd, 0x39,
  0xe0, 0x01, 0x2c, 0xbe, 0x22, 0x88, 0xba, 0xbe, 0x6f, 0xe7, 0xae, 0xbe,
  0xd7, 0x66, 0x74, 0xbe, 0x69, 0x56, 0xa4, 0xbe, 0x4c, 0xc4, 0x94, 0xbb,
  0xd7, 0xe7, 0x22, 0x3e, 0xbe, 0xb4, 0x82, 0x3a, 0x1a, 0x2a, 0x8a, 0xbe,
  0x96, 0xef, 0x90, 0xbe, 0x9d, 0x42, 0x95, 0xbe, 0x67, 0x4e, 0xac, 0xbe,
  0x6d, 0x2f, 0xb6, 0x3d, 0x00, 0x67, 0xe3, 0x3d, 0x70, 0x14, 0xb2, 0xbe,
  0xfb, 0xcb, 0xb3, 0xbe, 0x07, 0x00, 0x3e, 0xbe, 0xb6, 0x47, 0x2b, 0x3e,
  0x33, 0x44, 0x15, 0xbe, 0x1e, 0x38, 0x57, 0x3e, 0xda, 0x36, 0x96, 0x3e,
  0x6a, 0x61, 0xeb, 0x3d, 0xee, 0x77, 0xa0, 0x3d, 0xf2, 0xa3, 0x73, 0xbf,
  0x2f, 0xcd, 0x1d, 0xbf, 0xc6, 0x3a, 0x02, 0xbf, 0x7c, 0x6c, 0xb5, 0x3e,
  0xe9, 0x72, 0x2f, 0x3e, 0x2f, 0x01, 0x0c, 0xbf, 0x43, 0x21, 0x6b, 0xbe,
  0x00, 0x15, 0x87, 0xbe, 0xbc, 0xbf, 0x82, 0x3f, 0x2a, 0xb7, 0xaa, 0xbf,
  0x99, 0x69, 0x0b, 0xbf, 0xc3, 0x07, 0xb4, 0x3f, 0x6a, 0x01, 0xc2, 0xbf,
  0xbf, 0xab, 0x97, 0x3f, 0x64, 0xca, 0xff, 0xbe, 0x1c, 0x37, 0xb8, 0xbe,
  0x12, 0xf2, 0x8b, 0x3e, 0xaa, 0x70, 0xfd, 0x3e, 0xca, 0x80, 0x51, 0x3f,
  0xe5, 0x10, 0x65, 0xc0, 0xfc, 0xab, 0x5f, 0x3e, 0x23, 0x71, 0xbd, 0xbd,
  0x27, 0xb4, 0x98, 0xc0, 0xb7, 0x70, 0x30, 0x3f, 0x83, 0x84, 0x0a, 0xc0,
  0x20, 0x2f, 0x8b, 0xbe, 0x88, 0x65, 0x12, 0xbf, 0xcf, 0x05, 0x88, 0x3e,
  0x46, 0x5e, 0xbe, 0x3d, 0xc9, 0x6d, 0x27, 0x3b, 0xc2, 0xaa, 0xea, 0xbd,
  0x58, 0x57, 0x5c, 0x3f, 0x17, 0x0c, 0x87, 0xbe, 0x4d, 0xf7, 0xe8, 0xbe,
  0x3d, 0x99, 0xbd, 0x3f, 0x16, 0xb0, 0xf3, 0xbf, 0xc6, 0x7b, 0x97, 0xc0,
  0xea, 0xda, 0x99, 0x3d, 0xb5, 0x06, 0xc4, 0xbf, 0x33, 0xef, 0xaa, 0xbe,
  0x7f, 0xd9, 0xcd, 0x3e, 0x32, 0x81, 0xeb, 0xbe, 0xe1, 0x99, 0xac, 0x3f,
  0x48, 0x2e, 0x05, 0x3f, 0x3f, 0x7d, 0xed, 0x3e, 0xf2, 0xf3, 0x37, 0x3f,
  0x5b, 0x37, 0xf0, 0xbd, 0x4d, 0x8f, 0x5c, 0x3a, 0xaf, 0x51, 0x20, 0xc0,
  0x3f, 0x4f, 0xb0, 0x3f, 0x4a, 0xe9, 0x7a, 0xc0, 0x49, 0xc1, 0x4f, 0xbe,
  0x98, 0x92, 0x1c, 0xbe, 0x21, 0x76, 0x6f, 0xbf, 0xa7, 0x53, 0x1c, 0x3f,
  0x3b, 0x86, 0x91, 0xbc, 0xc0, 0x06, 0x81, 0xbc, 0xe1, 0x89, 0xf6, 0xbf,
  0x2b, 0x9e, 0xad, 0xbe, 0x38, 0x59, 0x01, 0xbf, 0x33, 0xd8, 0x9e, 0xbf,
  0xf3, 0xb5, 0x78, 0xbf, 0x3b, 0x14, 0x0b, 0x3e, 0x62, 0x7c, 0x95, 0xbf,
  0x19, 0xb7, 0xf7, 0xbf, 0x0b, 0x1e, 0x1a, 0x3f, 0xb0, 0xa1, 0xb1, 0xbf,
  0x60, 0xb2, 0x58, 0x3f, 0xaa, 0x09, 0x8b, 0xbf, 0x51, 0x90, 0xee, 0x3e,
  0xbf, 0x7c, 0x1d, 0x3f, 0xa5, 0xcc, 0x79, 0xbe, 0x1e, 0xee, 0xa2, 0xbe,
  0xa7, 0x8c, 0xe6, 0xba, 0x9c, 0xd5, 0x28, 0xbe, 0x40, 0x69, 0x88, 0xbe,
  0x26, 0xd5, 0x78, 0xbe, 0x40, 0x73, 0x94, 0xbc, 0xda, 0x4e, 0x4b, 0x3e,
  0x98, 0x45, 0x47, 0xbd, 0x84, 0xe9, 0x5a, 0xbe, 0xe8, 0x9e, 0x01, 0xbf,
  0x49, 0xff, 0x5e, 0xbe, 0x9a, 0x2d, 0x64, 0xbe, 0xa6, 0x55, 0x53, 0x3e,
  0x8f, 0x2c, 0xa4, 0xbe, 0x36, 0x31, 0x7c, 0xbe, 0xa3, 0xe4, 0x0d, 0xbf,
  0xc2, 0x34, 0xbe, 0x3d, 0xe0, 0x94, 0xe1, 0xbe, 0x15, 0x53, 0x1c, 0x40,
  0x8f, 0x3d, 0x1b, 0xc0, 0xa3, 0xc6, 0x0e, 0x3f, 0xd8, 0xa5, 0xf5, 0x3d,
  0x4e, 0x55, 0xb8, 0x3e, 0x0d, 0x20, 0xf7, 0x3d, 0x09, 0x18, 0xdc, 0xbe,
  0x82, 0x1e, 0x52, 0xc0, 0x63, 0x12, 0x0a, 0x3f, 0x90, 0x93, 0x8f, 0xbe,
  0x54, 0x2e, 0xca, 0x3f, 0x7e, 0x6a, 0xf2, 0xbc, 0xa8, 0x80, 0x5b, 0x3f,
  0x9c, 0x1e, 0x8e, 0xc0, 0x4d, 0x23, 0x04, 0x40, 0xfd, 0x53, 0x7f, 0xc0,
  0xcc, 0x4f, 0x19, 0xc0, 0xec, 0xff, 0x70, 0xbe, 0xe4, 0x57, 0x7d, 0x3f,
  0x6b, 0x83, 0xee, 0xbf, 0x16, 0x3a, 0xca, 0xbc, 0xee, 0x73, 0x5a, 0xbf,
  0x6e, 0xc5, 0xe0, 0x3d, 0x47, 0x49, 0xe3, 0xbf, 0x42, 0x78, 0xd5, 0xbf,
  0x4c, 0x90, 0x48, 0xc0, 0x84, 0x6a, 0xca, 0x40, 0xde, 0x05, 0x12, 0x3f,
  0xf0, 0xc5, 0x15, 0x3e, 0x6a, 0xe0, 0x3b, 0xbf, 0xf4, 0x30, 0x14, 0xc1,
  0x38, 0xfa, 0xf3, 0xbf, 0xed, 0x26, 0x70, 0x3e, 0x9c, 0x31, 0x9c, 0x3f,
  0x98, 0xb0, 0xc0, 0x3e, 0xd1, 0xb4, 0x89, 0xc0, 0x87, 0xc6, 0xb7, 0x3d,
  0x06, 0x71, 0xb4, 0xbe, 0x8e, 0xec, 0x43, 0xbf, 0x22, 0x3f, 0x07, 0x40,
  0xc1, 0xfe, 0x35, 0xbf, 0x1c, 0x06, 0x57, 0xbe, 0xdd, 0xfb, 0x87, 0x3f,
  0x39, 0xde, 0x1f, 0x3e, 0xa3, 0x8e, 0x10, 0xbd, 0x3b, 0x97, 0x68, 0xc0,
  0xea, 0x15, 0x62, 0x3e, 0xbd, 0x5a, 0x99, 0xbe, 0xb7, 0x48, 0xdb, 0x3f,
  0x36, 0x07, 0x3d, 0x3f, 0x37, 0xd2, 0x40, 0xbd, 0x14, 0x9f, 0x10, 0x3f,
  0xb3, 0x7f, 0x17, 0xbd, 0x53, 0xc2, 0x44, 0x3f, 0x2e, 0x54, 0x3f, 0xbf,
  0x88, 0x85, 0xab, 0xc0, 0x0a, 0x00, 0x91, 0x3e, 0xcb, 0x7c, 0xb8, 0xbe,
  0xe5, 0x48, 0xd2, 0x3f, 0xb4, 0x26, 0x9c, 0x3f, 0x46, 0xc4, 0xdf, 0xbf,
  0x90, 0xbc, 0xce, 0x3f, 0x30, 0x3f, 0x11, 0xc1, 0x3f, 0xe6, 0xe7, 0x3d,
  0xe0, 0xe8, 0xc1, 0xbd, 0x2c, 0x14, 0xb3, 0xbf, 0x3f, 0x63, 0x0c, 0xbf,
  0xc9, 0x4a, 0x2e, 0x3f, 0x0a, 0x08, 0x10, 0xbe, 0x1e, 0x54, 0xb8, 0xbf,
  0x77, 0x19, 0x40, 0x3e, 0x8d, 0x85, 0x09, 0xbe, 0x91, 0xc9, 0x0e, 0x40,
  0x6f, 0xf2, 0x7b, 0x3f, 0x4d, 0xb5, 0x46, 0x40, 0x3b, 0x26, 0xb3, 0x3f,
  0x26, 0x3a, 0x16, 0xc0, 0x3a, 0x75, 0xff, 0x3f, 0xa9, 0xb2, 0x5c, 0xbe,
  0x1e, 0x06, 0x56, 0xbe, 0x3d, 0x33, 0xaf, 0xbd, 0x5d, 0x00, 0x45, 0x3f,
  0x82, 0xc7, 0x56, 0x3f, 0x15, 0x71, 0x04, 0xbe, 0x50, 0x2f, 0x5c, 0xbd,
  0x7a, 0x37, 0x93, 0x3e, 0xf1, 0x38, 0x0f, 0x40, 0xbf, 0x36, 0x74, 0x3f,
  0x4c, 0xbd, 0x68, 0x3e, 0xde, 0xea, 0x9b, 0x3f, 0x79, 0xb2, 0x99, 0x3f,
  0x22, 0x79, 0x33, 0xc0, 0xa9, 0xfb, 0xdb, 0x3e, 0x7e, 0x67, 0x6e, 0xc0,
  0x06, 0x52, 0x0d, 0x3f, 0xc1, 0x20, 0x51, 0x3d, 0x80, 0x57, 0x29, 0x40,
  0xc3, 0x5a, 0x05, 0xbc, 0x04, 0xfe, 0x31, 0x3f, 0xa2, 0xc9, 0xd1, 0x3d,
  0xed, 0x0d, 0x0c, 0xbf, 0xbb, 0xb5, 0x3c, 0x40, 0x3e, 0x28, 0xca, 0x3f,
  0x53, 0x1c, 0x4b, 0xbf, 0x52, 0x59, 0x75, 0x3e, 0xc8, 0x6e, 0xae, 0x3f,
  0x8c, 0x18, 0x04, 0x40, 0x56, 0xcc, 0x88, 0xc0, 0x65, 0xd5, 0x04, 0xbf,
  0x91, 0xdb, 0x18, 0xbf, 0xc1, 0x08, 0x4d, 0xc0, 0xd8, 0x8b, 0x99, 0xbe,
  0x0a, 0x0f, 0x83, 0xbc, 0x28, 0x72, 0xd7, 0xbe, 0x50, 0x59, 0x11, 0xbf,
  0x66, 0x1b, 0x3e, 0xbe, 0xe9, 0x90, 0xa8, 0xbe, 0x7c, 0x7a, 0xa0, 0xbd,
  0x1b, 0xc7, 0x1f, 0xbf, 0xc2, 0xbf, 0x6a, 0x3f, 0xc0, 0xca, 0x09, 0xbf,
  0x4b, 0xb0, 0xa6, 0x3f, 0x16, 0x61, 0x58, 0x3d, 0x89, 0x87, 0xc4, 0xbf,
  0x2d, 0x72, 0x28, 0xbf, 0xc1, 0x0b, 0x86, 0xbf, 0x0d, 0x69, 0xe8, 0x3f,
  0xcc, 0xd5, 0x9a, 0xbf, 0x81, 0xdc, 0x20, 0xbf, 0x97, 0x9f, 0xf5, 0x3f,
  0xd2, 0xb7, 0xc6, 0xbf, 0xe9, 0x41, 0x29, 0xc0, 0xb5, 0x57, 0xea, 0xbe,
  0x66, 0x46, 0xe8, 0x3f, 0x37, 0x22, 0x67, 0xc0, 0x96, 0x74, 0xa0, 0x3f,
  0x63, 0x03, 0x90, 0xc0, 0x40, 0x6a, 0xe0, 0x3a, 0xa9, 0xc9, 0x9b, 0xc0,
  0x33, 0xd5, 0x48, 0x3e, 0xfc, 0xa0, 0xc7, 0x3e, 0x5c, 0x27, 0xdb, 0xbe,
  0xbb, 0xfb, 0xac, 0xc0, 0x27, 0xf1, 0x8c, 0xc0, 0x16, 0xc5, 0xed, 0x3f,
  0x53, 0xac, 0x01, 0x3f, 0x1f, 0x79, 0x08, 0x3f, 0x1c, 0xd1, 0x2e, 0xc0,
  0x67, 0xca, 0x17, 0xbf, 0xfe, 0x43, 0x98, 0xbe, 0x14, 0x67, 0xc5, 0x3d,
  0xf0, 0x4b, 0x2b, 0x3f, 0x8c, 0x02, 0x0e, 0xbf, 0x88, 0x26, 0x4e, 0xbe,
  0xf2, 0x56, 0x02, 0x40, 0x94, 0x9b, 0x85, 0xbc, 0xc0, 0x38, 0x20, 0x3e,
  0x72, 0x44, 0x71, 0xc0, 0x5d, 0x10, 0x82, 0xbe, 0x36, 0xd4, 0xbe, 0xbd,
  0x8e, 0x25, 0xc4, 0xbe, 0xb5, 0x14, 0x46, 0xbe, 0xd3, 0xfd, 0xd1, 0x3d,
  0x00, 0xbd, 0x0e, 0xbe, 0x58, 0x27, 0xae, 0xbd, 0x6c, 0xc2, 0x8c, 0x3d,
  0x57, 0x77, 0x7c, 0xba, 0x89, 0x13, 0xc9, 0xbd, 0x44, 0x70, 0x40, 0xbd,
  0xd8, 0x9a, 0x7c, 0xbe, 0x12, 0x4c, 0x15, 0x3e, 0x7d, 0x67, 0x79, 0x3c,
  0xf0, 0x0d, 0x02, 0x3d, 0xf5, 0x48, 0x22, 0xbe, 0xb9, 0x7a, 0x62, 0xbe,
  0xa0, 0x32, 0x4d, 0xbf, 0xca, 0xf1, 0x5b, 0x3d, 0x5d, 0xef, 0xcc, 0x3f,
  0xe7, 0x78, 0xd6, 0x3e, 0x5a, 0x42, 0xf5, 0x3e, 0xd3, 0xfc, 0x24, 0xbe,
  0xf2, 0x2d, 0xd1, 0x3f, 0xf6, 0x88, 0x3d, 0xbf, 0xc4, 0x5b, 0x8d, 0xbf,
  0x3d, 0x06, 0x7a, 0x3e, 0x1c, 0x20, 0xcd, 0xbf, 0x28, 0x29, 0x46, 0xc0,
  0x8a, 0x7d, 0x39, 0xbe, 0x6c, 0xb4, 0x6d, 0xbf, 0x56, 0x95, 0xd7, 0xbe,
  0x67, 0xd4, 0xd8, 0x3b, 0xd2, 0x7d, 0xcc, 0xc0, 0x34, 0x0c, 0x17, 0x3e,
  0x57, 0x5c, 0x4e, 0xc1, 0x4f, 0x62, 0xbd, 0x3d, 0x2a, 0xc9, 0xc8, 0xc0,
  0x5a, 0x83, 0x46, 0x3e, 0x34, 0xe4, 0xeb, 0x3f, 0xbf, 0xda, 0xa3, 0xc0,
  0x39, 0x13, 0x9c, 0x3e, 0x65, 0x2d, 0x17, 0xbf, 0x90, 0x19, 0x7c, 0xbf,
  0x71, 0x53, 0xcb, 0xbf, 0x30, 0x7d, 0x15, 0x3f, 0x13, 0xad, 0x94, 0xc0,
  0xdf, 0xf2, 0x02, 0x40, 0xd3, 0xe3, 0x0c, 0x3f, 0xcc, 0x11, 0x1d, 0xbf,
  0x5a, 0x6f, 0xa5, 0xbf, 0x44, 0xa7, 0xbd, 0x3f, 0x33, 0x0d, 0xe0, 0xbe,
  0x94, 0x17, 0x83, 0x3d, 0xff, 0xfd, 0xd7, 0x3b, 0x96, 0xcf, 0x9c, 0xbf,
  0x4e, 0x2a, 0x5a, 0x3d, 0xb8, 0xf7, 0x22, 0xc1, 0xef, 0x8e, 0x56, 0xbf,
  0xd3, 0x20, 0x48, 0xbe, 0x2b, 0x30, 0x5e, 0x3f, 0x9e, 0xf1, 0x2d, 0xbe,
  0x8d, 0x5f, 0x77, 0x3d, 0x24, 0xbd, 0xf5, 0xbd, 0x40, 0xf1, 0x9f, 0x3d,
  0x26, 0xd5, 0x94, 0xbe, 0x21, 0xcd, 0x4c, 0xbd, 0xde, 0xd3, 0x50, 0x3e,
  0xb0, 0xa2, 0xbc, 0x3d, 0xe4, 0x9a, 0xd4, 0xbe, 0x41, 0x2d, 0x93, 0xbe,
  0x11, 0x95, 0x09, 0xbe, 0x46, 0x6f, 0xe5, 0xbe, 0x76, 0xb2, 0xbf, 0xbe,
  0xfd, 0xda, 0x09, 0x3d, 0x8c, 0xa9, 0x3f, 0xbe, 0x47, 0xca, 0x93, 0xbe,
  0x5e, 0xc4, 0x1b, 0xbc, 0x88, 0xba, 0x21, 0x3d, 0x4d, 0x58, 0xef, 0xbc,
  0xe9, 0xbd, 0x6e, 0xbf, 0x39, 0x86, 0x26, 0xbf, 0xab, 0x62, 0x85, 0x3f,
  0x44, 0xab, 0xe4, 0xbe, 0xc1, 0x8f, 0x5e, 0x3f, 0xb4, 0xc3, 0x57, 0x3f,
  0x8a, 0x16, 0x30, 0xbf, 0x0c, 0x9c, 0xcf, 0x3f, 0x4e, 0x86, 0xdc, 0xbe,
  0x86, 0x74, 0x95, 0xbd, 0x40, 0x66, 0x8a, 0x3f, 0x31, 0xec, 0xb4, 0x3d,
  0xf7, 0x04, 0xdc, 0xc0, 0x61, 0xdf, 0xaf, 0xbd, 0x85, 0x81, 0x3f, 0xbd,
  0x3c, 0xce, 0x50, 0xbd, 0x11, 0x25, 0x80, 0x3e, 0x5c, 0x9b, 0x35, 0xbf,
  0xe9, 0x70, 0x1f, 0x3f, 0xa8, 0xa7, 0x17, 0xc0, 0xe9, 0xe9, 0xef, 0xbd,
  0x00, 0x11, 0x20, 0xbf, 0x36, 0xcb, 0xda, 0x3e, 0x09, 0x6b, 0x81, 0xc0,
  0x50, 0x32, 0xf8, 0xbf, 0x4d, 0x61, 0x7d, 0xbf, 0xc3, 0x49, 0x2e, 0xbf,
  0x43, 0xa8, 0x80, 0xbf, 0x44, 0xfe, 0x7b, 0x40, 0x5a, 0xdc, 0x74, 0x3f,
  0x9f, 0xda, 0xf4, 0x3d, 0xbc, 0x39, 0x67, 0x3f, 0xd5, 0x58, 0x93, 0xc0,
  0x2a, 0xbe, 0xef, 0xbf, 0x5f, 0xca, 0x91, 0x3f, 0xcb, 0x6b, 0xb8, 0xbe,
  0xa2, 0x82, 0x16, 0x3f, 0xde, 0xcd, 0xf3, 0xbf, 0xce, 0xbb, 0x03, 0x3e,
  0xa6, 0x29, 0xf8, 0xbd, 0x4a, 0x83, 0x69, 0xc0, 0x53, 0xe6, 0x15, 0x3e,
  0x55, 0xc8, 0x9a, 0xbf, 0x0c, 0x90, 0x1f, 0x3f, 0x2c, 0xe1, 0xaa, 0x3f,
  0x1b, 0x7c, 0x4e, 0x3f, 0xc9, 0x72, 0x52, 0x3f, 0x91, 0x6a, 0xa7, 0xbf,
  0x54, 0x4b, 0x16, 0xc1, 0xce, 0x2e, 0x38, 0xbf, 0xfe, 0xb2, 0xd2, 0x3f,
  0xaa, 0xe4, 0x1b, 0xbf, 0x77, 0x8a, 0xa7, 0x3f, 0xd1, 0x1a, 0x86, 0x3e,
  0x80, 0x86, 0x05, 0x3f, 0xfe, 0x19, 0x04, 0x3f, 0x58, 0xb3, 0x24, 0xc0,
  0xe0, 0xe8, 0xfe, 0xbe, 0xcf, 0x8d, 0xfe, 0xc0, 0x0d, 0x0c, 0x2e, 0xbf,
  0xec, 0x0a, 0x0a, 0x40, 0x2e, 0xcc, 0x0b, 0x3c, 0x13, 0xe0, 0x6d, 0x3f,
  0x41, 0x86, 0x9d, 0xc0, 0x02, 0xfd, 0xff, 0xff, 0x04, 0x00, 0x00, 0x00,
  0x80, 0x01, 0x00, 0x00, 0x9c, 0x51, 0xd3, 0xbf, 0x65, 0x7d, 0xe8, 0x3d,
  0x69, 0x5f, 0x09, 0x40, 0xc1, 0x6e, 0xbe, 0x3e, 0xab, 0x58, 0x6e, 0xc0,
  0xd6, 0x78, 0x81, 0x3e, 0x69, 0xdf, 0xe0, 0x3f, 0x70, 0x46, 0xb6, 0x3e,
  0x85, 0x22, 0x2b, 0xc0, 0x7d, 0x57, 0x2a, 0x3f, 0x5d, 0x41, 0x59, 0xbf,
  0xf0, 0x6e, 0x7e, 0x3f, 0x5f, 0xd8, 0xaa, 0xbf, 0xa5, 0x9c, 0x9f, 0x3f,
  0xd2, 0xc8, 0x78, 0x3f, 0x21, 0x56, 0x37, 0xbf, 0xd3, 0xdb, 0x2d, 0xbe,
  0xf4, 0x05, 0x78, 0xbf, 0x0e, 0x37, 0x29, 0xbf, 0x10, 0xbd, 0x17, 0xbd,
  0x87, 0x70, 0x04, 0xc1, 0xa0, 0x12, 0x7b, 0x40, 0x55, 0xd7, 0xb9, 0xbe,
  0xe2, 0x96, 0x43, 0xc0, 0x8d, 0xc6, 0xd5, 0x3f, 0x9f, 0xf2, 0x5a, 0xc0,
  0x77, 0x6a, 0x25, 0xc0, 0x76, 0x1c, 0xaa, 0xbf, 0x1d, 0x63, 0x91, 0xbf,
  0x7d, 0xfb, 0x18, 0xc0, 0x06, 0x09, 0xc8, 0x3f, 0x1f, 0xd7, 0x06, 0x3f,
  0x0c, 0xfe, 0xae, 0xbf, 0xf5, 0x35, 0x9b, 0xbe, 0x94, 0x70, 0x9a, 0x3e,
  0x8b, 0xeb, 0x33, 0xc0, 0xa4, 0x81, 0x23, 0xbf, 0xf6, 0xd0, 0xad, 0x3e,
  0x70, 0x92, 0x3a, 0xbd, 0xfa, 0x31, 0xf6, 0xbe, 0x30, 0xdb, 0x81, 0xbf,
  0x6a, 0x94, 0x00, 0x3e, 0x18, 0x50, 0x43, 0xbe, 0x49, 0x83, 0xe1, 0xbf,
  0x3d, 0x3e, 0x84, 0x3f, 0x4b, 0xeb, 0xcf, 0xc0, 0xdd, 0x3e, 0xfa, 0xbd,
  0x23, 0xb7, 0x5e, 0xc0, 0xaf, 0xdb, 0xf9, 0x3f, 0xb1, 0x9a, 0xf3, 0x3e,
  0xf9, 0x5d, 0xa9, 0xbf, 0x81, 0xbd, 0xb2, 0xbf, 0x9e, 0x2b, 0x58, 0xbf,
  0xe4, 0xdb, 0x7c, 0xbf, 0x0c, 0xe9, 0x36, 0xbd, 0x12, 0xa6, 0x2b, 0xbf,
  0xae, 0x81, 0xb7, 0xbf, 0x38, 0x77, 0x59, 0x3f, 0xe3, 0x96, 0x0f, 0xc0,
  0x76, 0x52, 0xd9, 0x3e, 0x94, 0x07, 0x87, 0x3f, 0x45, 0x5e, 0xaa, 0x3f,
  0x6e, 0x59, 0xd8, 0xbe, 0x1c, 0x05, 0xf1, 0x3b, 0xea, 0x95, 0x51, 0x3e,
  0xe9, 0xb0, 0x89, 0xbf, 0x1f, 0x36, 0x86, 0x3f, 0x5a, 0x6f, 0xdd, 0xbe,
  0xb2, 0xcc, 0x16, 0xc0, 0x75, 0xe3, 0xbb, 0xbe, 0xe2, 0xcf, 0xeb, 0xbf,
  0xb8, 0xb8, 0x76, 0x3f, 0xdf, 0x4d, 0x7c, 0xc0, 0x4d, 0x24, 0xc2, 0x3f,
  0x5c, 0x5c, 0x39, 0x3f, 0xe9, 0x71, 0xab, 0x3d, 0x31, 0x23, 0xac, 0xbf,
  0xd4, 0x72, 0x3a, 0xc0, 0x23, 0x31, 0x85, 0xbf, 0x3e, 0xe1, 0x02, 0x3e,
  0xd9, 0x78, 0x27, 0x3f, 0x21, 0x40, 0x35, 0x3f, 0x95, 0x05, 0xa8, 0x3e,
  0xb5, 0x55, 0x11, 0xc0, 0x86, 0xa4, 0xe3, 0x3e, 0xa4, 0xa7, 0x21, 0x40,
  0xdc, 0xa1, 0x46, 0xc0, 0x56, 0x0c, 0xbd, 0xbf, 0x82, 0xdd, 0xa3, 0xbf,
  0xed, 0xd5, 0x02, 0xbf, 0xb4, 0x12, 0x66, 0xbf, 0x77, 0x23, 0x07, 0xbf,
  0xca, 0x9f, 0x43, 0x3f, 0x1c, 0x43, 0xbb, 0x3e, 0x35, 0x57, 0x08, 0x40,
  0x94, 0x55, 0xf9, 0xbf, 0x8e, 0xfe, 0xff, 0xff, 0x04, 0x00, 0x00, 0x00,
  0x48, 0x00, 0x00, 0x00, 0xb0, 0xa2, 0x70, 0x3f, 0x43, 0x50, 0x01, 0xbe,
  0xe8, 0x02, 0x44, 0xc0, 0xb2, 0xd8, 0x1b, 0xc0, 0xed, 0x40, 0x81, 0xbe,
  0xcb, 0x2c, 0xf6, 0x3d, 0x6b, 0x77, 0x1b, 0x3f, 0xdf, 0xd3, 0x82, 0x3f,
  0x29, 0x1d, 0xee, 0xbf, 0xc9, 0xf4, 0x97, 0xbf, 0x0a, 0xe3, 0x1d, 0xbf,
  0xed, 0x65, 0x5d, 0xc0, 0xa7, 0x5c, 0xa1, 0x3f, 0x8c, 0x74, 0xb2, 0xbf,
  0xb7, 0x3e, 0xd2, 0x3c, 0x6c, 0x4b, 0x82, 0x3f, 0xa9, 0x22, 0xd5, 0xbe,
  0x86, 0x70, 0x1e, 0xc0, 0xe2, 0xfe, 0xff, 0xff, 0x04, 0x00, 0x00, 0x00,
  0x18, 0x00, 0x00, 0x00, 0xcf, 0x3d, 0xa1, 0x3f, 0x51, 0x78, 0x19, 0xbf,
  0x23, 0xe4, 0xd7, 0x3f, 0xe0, 0x1e, 0x66, 0xbe, 0x21, 0xf7, 0xae, 0xbf,
  0xe4, 0x17, 0xb6, 0xbe, 0x06, 0xff, 0xff, 0xff, 0x04, 0x00, 0x00, 0x00,
  0x14, 0x00, 0x00, 0x00, 0xee, 0x81, 0x7b, 0x40, 0xee, 0x81, 0x7b, 0x40,
  0xee, 0x81, 0x7b, 0x40, 0xee, 0x81, 0x7b, 0x40, 0xee, 0x81, 0x7b, 0x40,
  0x26, 0xff, 0xff, 0xff, 0x04, 0x00, 0x00, 0x00, 0x40, 0x00, 0x00, 0x00,
  0xa1, 0xd8, 0x4c, 0xbf, 0xc1, 0x04, 0x01, 0x3e, 0xa7, 0xdb, 0xfc, 0xbe,
  0x86, 0x76, 0x5d, 0xbe, 0xcb, 0x21, 0x6e, 0x3e, 0x30, 0x7d, 0x97, 0x3f,
  0xa6, 0x30, 0xca, 0x3c, 0x6c, 0x09, 0xa9, 0x3e, 0x6c, 0x0a, 0xde, 0x3f,
  0x45, 0xac, 0x5a, 0xbe, 0x18, 0x2a, 0x54, 0x3f, 0x3a, 0xfc, 0x1f, 0x3e,
  0x56, 0x3b, 0x7a, 0x3f, 0x43, 0x13, 0xbd, 0xbd, 0xcb, 0xd1, 0xa1, 0x3f,
  0x85, 0x7a, 0x9d, 0xbf, 0x72, 0xff, 0xff, 0xff, 0x04, 0x00, 0x00, 0x00,
  0x80, 0x00, 0x00, 0x00, 0x79, 0x1c, 0x97, 0xbe, 0xb9, 0xf9, 0x80, 0xbf,
  0x63, 0xf4, 0x80, 0x3d, 0x66, 0x64, 0x46, 0x3f, 0x35, 0x2d, 0x7c, 0x3f,
  0xc4, 0xf5, 0x9e, 0xbe, 0x41, 0xd5, 0x92, 0xbe, 0x1b, 0xb0, 0x20, 0xbe,
  0x75, 0x95, 0x9e, 0xbe, 0x99, 0xd6, 0x4d, 0x3e, 0x9b, 0xc7, 0xa6, 0xbd,
  0xfd, 0xd4, 0x30, 0x3f, 0x6e, 0x22, 0x8f, 0xbe, 0x17, 0x10, 0xbc, 0x3e,
  0xb3, 0x38, 0xc6, 0x3e, 0x58, 0x69, 0xfb, 0xbd, 0x03, 0x72, 0x2b, 0xbc,
  0xbe, 0xb0, 0xa5, 0x3e, 0xcf, 0x69, 0xca, 0xbf, 0xe6, 0x2c, 0xd3, 0xbf,
  0x2d, 0x45, 0x3e, 0xbe, 0x3b, 0xdb, 0x02, 0xbf, 0x82, 0xf9, 0x5a, 0x3d,
  0xee, 0x4c, 0x5a, 0xbe, 0x46, 0xdd, 0x17, 0x3e, 0xec, 0xb8, 0xc4, 0x3e,
  0x01, 0x93, 0x3a, 0x3f, 0xbe, 0x08, 0xa8, 0xbe, 0x0f, 0x76, 0x45, 0x3f,
  0x82, 0xf5, 0x98, 0x3f, 0x1d, 0x77, 0x40, 0x3f, 0x3c, 0xb9, 0xd5, 0xbe,
  0x00, 0x00, 0x06, 0x00, 0x08, 0x00, 0x04, 0x00, 0x06, 0x00, 0x00, 0x00,
  0x04, 0x00, 0x00, 0x00, 0x40, 0x00, 0x00, 0x00, 0x6e, 0xa3, 0x75, 0x3f,
  0x04, 0x45, 0x21, 0xbe, 0xae, 0x21, 0xbe, 0xbe, 0xeb, 0x10, 0xf0, 0x3e,
  0x9b, 0x7a, 0xfe, 0x3e, 0x63, 0xf0, 0x0d, 0xbf, 0xd3, 0xb3, 0x93, 0xbe,
  0x73, 0xfc, 0xa6, 0xbf, 0x5a, 0x38, 0x27, 0xbf, 0x4e, 0x8c, 0x6d, 0x3f,
  0x5d, 0x22, 0x7c, 0xbf, 0x52, 0x56, 0x19, 0x3f, 0x43, 0x0d, 0x1f, 0x3e,
  0xbd, 0xc4, 0x26, 0x3f, 0xbf, 0x2c, 0xa0, 0x3f, 0x8b, 0xb2, 0x36, 0xbf,
  0x48, 0xf8, 0xff, 0xff, 0x4c, 0xf8, 0xff, 0xff, 0x0f, 0x00, 0x00, 0x00,
  0x4d, 0x4c, 0x49, 0x52, 0x20, 0x43, 0x6f, 0x6e, 0x76, 0x65, 0x72, 0x74,
  0x65, 0x64, 0x2e, 0x00, 0x01, 0x00, 0x00, 0x00, 0x14, 0x00, 0x00, 0x00,
  0x00, 0x00, 0x0e, 0x00, 0x18, 0x00, 0x14, 0x00, 0x10, 0x00, 0x0c, 0x00,
  0x08, 0x00, 0x04, 0x00, 0x0e, 0x00, 0x00, 0x00, 0x14, 0x00, 0x00, 0x00,
  0x1c, 0x00, 0x00, 0x00, 0x48, 0x01, 0x00, 0x00, 0x4c, 0x01, 0x00, 0x00,
  0x50, 0x01, 0x00, 0x00, 0x04, 0x00, 0x00, 0x00, 0x6d, 0x61, 0x69, 0x6e,
  0x00, 0x00, 0x00, 0x00, 0x05, 0x00, 0x00, 0x00, 0xf0, 0x00, 0x00, 0x00,
  0xa8, 0x00, 0x00, 0x00, 0x70, 0x00, 0x00, 0x00, 0x38, 0x00, 0x00, 0x00,
  0x04, 0x00, 0x00, 0x00, 0x32, 0xff, 0xff, 0xff, 0x10, 0x00, 0x00, 0x00,
  0x00, 0x00, 0x00, 0x08, 0x0c, 0x00, 0x00, 0x00, 0x10, 0x00, 0x00, 0x00,
  0xcc, 0xf8, 0xff, 0xff, 0x01, 0x00, 0x00, 0x00, 0x0f, 0x00, 0x00, 0x00,
  0x03, 0x00, 0x00, 0x00, 0x0e, 0x00, 0x00, 0x00, 0x0a, 0x00, 0x00, 0x00,
  0x04, 0x00, 0x00, 0x00, 0x62, 0xff, 0xff, 0xff, 0x10, 0x00, 0x00, 0x00,
  0x00, 0x00, 0x00, 0x08, 0x10, 0x00, 0x00, 0x00, 0x14, 0x00, 0x00, 0x00,
  0x52, 0xff, 0xff, 0xff, 0x00, 0x00, 0x00, 0x01, 0x01, 0x00, 0x00, 0x00,
  0x0e, 0x00, 0x00, 0x00, 0x03, 0x00, 0x00, 0x00, 0x0d, 0x00, 0x00, 0x00,
  0x09, 0x00, 0x00, 0x00, 0x03, 0x00, 0x00, 0x00, 0x96, 0xff, 0xff, 0xff,
  0x10, 0x00, 0x00, 0x00, 0x00, 0x00, 0x00, 0x08, 0x10, 0x00, 0x00, 0x00,
  0x14, 0x00, 0x00, 0x00, 0x86, 0xff, 0xff, 0xff, 0x00, 0x00, 0x00, 0x01,
  0x01, 0x00, 0x00, 0x00, 0x0d, 0x00, 0x00, 0x00, 0x03, 0x00, 0x00, 0x00,
  0x0c, 0x00, 0x00, 0x00, 0x08, 0x00, 0x00, 0x00, 0x02, 0x00, 0x00, 0x00,
  0xca, 0xff, 0xff, 0xff, 0x10, 0x00, 0x00, 0x00, 0x00, 0x00, 0x00, 0x08,
  0x10, 0x00, 0x00, 0x00, 0x14, 0x00, 0x00, 0x00, 0xba, 0xff, 0xff, 0xff,
  0x00, 0x00, 0x00, 0x01, 0x01, 0x00, 0x00, 0x00, 0x0c, 0x00, 0x00, 0x00,
  0x03, 0x00, 0x00, 0x00, 0x0b, 0x00, 0x00, 0x00, 0x07, 0x00, 0x00, 0x00,
  0x01, 0x00, 0x00, 0x00, 0x00, 0x00, 0x0e, 0x00, 0x16, 0x00, 0x00, 0x00,
  0x10, 0x00, 0x0c, 0x00, 0x0b, 0x00, 0x04, 0x00, 0x0e, 0x00, 0x00, 0x00,
  0x18, 0x00, 0x00, 0x00, 0x00, 0x00, 0x00, 0x08, 0x18, 0x00, 0x00, 0x00,
  0x1c, 0x00, 0x00, 0x00, 0x00, 0x00, 0x06, 0x00, 0x08, 0x00, 0x07, 0x00,
  0x06, 0x00, 0x00, 0x00, 0x00, 0x00, 0x00, 0x01, 0x01, 0x00, 0x00, 0x00,
  0x0b, 0x00, 0x00, 0x00, 0x03, 0x00, 0x00, 0x00, 0x00, 0x00, 0x00, 0x00,
  0x06, 0x00, 0x00, 0x00, 0x05, 0x00, 0x00, 0x00, 0x01, 0x00, 0x00, 0x00,
  0x0f, 0x00, 0x00, 0x00, 0x01, 0x00, 0x00, 0x00, 0x00, 0x00, 0x00, 0x00,
  0x10, 0x00, 0x00, 0x00, 0xf4, 0x05, 0x00, 0x00, 0x84, 0x05, 0x00, 0x00,
  0x14, 0x05, 0x00, 0x00, 0xbc, 0x04, 0x00, 0x00, 0x64, 0x04, 0x00, 0x00,
  0x10, 0x04, 0x00, 0x00, 0xc8, 0x03, 0x00, 0x00, 0x7c, 0x03, 0x00, 0x00,
  0x30, 0x03, 0x00, 0x00, 0xe4, 0x02, 0x00, 0x00, 0x98, 0x02, 0x00, 0x00,
  0x10, 0x02, 0x00, 0x00, 0x80, 0x01, 0x00, 0x00, 0xf0, 0x00, 0x00, 0x00,
  0x60, 0x00, 0x00, 0x00, 0x04, 0x00, 0x00, 0x00, 0x62, 0xfa, 0xff, 0xff,
  0x00, 0x00, 0x00, 0x01, 0x14, 0x00, 0x00, 0x00, 0x1c, 0x00, 0x00, 0x00,
  0x1c, 0x00, 0x00, 0x00, 0x10, 0x00, 0x00, 0x00, 0x34, 0x00, 0x00, 0x00,
  0x02, 0x00, 0x00, 0x00, 0xff, 0xff, 0xff, 0xff, 0x05, 0x00, 0x00, 0x00,
  0x4c, 0xfa, 0xff, 0xff, 0x19, 0x00, 0x00, 0x00, 0x53, 0x74, 0x61, 0x74,
  0x65, 0x66, 0x75, 0x6c, 0x50, 0x61, 0x72, 0x74, 0x69, 0x74, 0x69, 0x6f,
  0x6e, 0x65, 0x64, 0x43, 0x61, 0x6c, 0x6c, 0x3a, 0x30, 0x00, 0x00, 0x00,
  0x02, 0x00, 0x00, 0x00, 0x01, 0x00, 0x00, 0x00, 0x05, 0x00, 0x00, 0x00,
  0xba, 0xfa, 0xff, 0xff, 0x00, 0x00, 0x00, 0x01, 0x14, 0x00, 0x00, 0x00,
  0x1c, 0x00, 0x00, 0x00, 0x1c, 0x00, 0x00, 0x00, 0x0f, 0x00, 0x00, 0x00,
  0x68, 0x00, 0x00, 0x00, 0x02, 0x00, 0x00, 0x00, 0xff, 0xff, 0xff, 0xff,
  0x10, 0x00, 0x00, 0x00, 0xa4, 0xfa, 0xff, 0xff, 0x4c, 0x00, 0x00, 0x00,
  0x73, 0x65, 0x71, 0x75, 0x65, 0x6e, 0x74, 0x69, 0x61, 0x6c, 0x2f, 0x64,
  0x65, 0x6e, 0x73, 0x65, 0x5f, 0x33, 0x2f, 0x4d, 0x61, 0x74, 0x4d, 0x75,
  0x6c, 0x3b, 0x73, 0x65, 0x71, 0x75, 0x65, 0x6e, 0x74, 0x69, 0x61, 0x6c,
  0x2f, 0x64, 0x65, 0x6e, 0x73, 0x65, 0x5f, 0x33, 0x2f, 0x52, 0x65, 0x6c,
  0x75, 0x3b, 0x73, 0x65, 0x71, 0x75, 0x65, 0x6e, 0x74, 0x69, 0x61, 0x6c,
  0x2f, 0x64, 0x65, 0x6e, 0x73, 0x65, 0x5f, 0x33, 0x2f, 0x42, 0x69, 0x61,
  0x73, 0x41, 0x64, 0x64, 0x00, 0x00, 0x00, 0x00, 0x02, 0x00, 0x00, 0x00,
  0x01, 0x00, 0x00, 0x00, 0x10, 0x00, 0x00, 0x00, 0x46, 0xfb, 0xff, 0xff,
  0x00, 0x00, 0x00, 0x01, 0x14, 0x00, 0x00, 0x00, 0x1c, 0x00, 0x00, 0x00,
  0x1c, 0x00, 0x00, 0x00, 0x0e, 0x00, 0x00, 0x00, 0x68, 0x00, 0x00, 0x00,
  0x02, 0x00, 0x00, 0x00, 0xff, 0xff, 0xff, 0xff, 0x20, 0x00, 0x00, 0x00,
  0x30, 0xfb, 0xff, 0xff, 0x4c, 0x00, 0x00, 0x00, 0x73, 0x65, 0x71, 0x75,
  0x65, 0x6e, 0x74, 0x69, 0x61, 0x6c, 0x2f, 0x64, 0x65, 0x6e, 0x73, 0x65,
  0x5f, 0x32, 0x2f, 0x4d, 0x61, 0x74, 0x4d, 0x75, 0x6c, 0x3b, 0x73, 0x65,
  0x71, 0x75, 0x65, 0x6e, 0x74, 0x69, 0x61, 0x6c, 0x2f, 0x64, 0x65, 0x6e,
  0x73, 0x65, 0x5f, 0x32, 0x2f, 0x52, 0x65, 0x6c, 0x75, 0x3b, 0x73, 0x65,
  0x71, 0x75, 0x65, 0x6e, 0x74, 0x69, 0x61, 0x6c, 0x2f, 0x64, 0x65, 0x6e,
  0x73, 0x65, 0x5f, 0x32, 0x2f, 0x42, 0x69, 0x61, 0x73, 0x41, 0x64, 0x64,
  0x00, 0x00, 0x00, 0x00, 0x02, 0x00, 0x00, 0x00, 0x01, 0x00, 0x00, 0x00,
  0x20, 0x00, 0x00, 0x00, 0xd2, 0xfb, 0xff, 0xff, 0x00, 0x00, 0x00, 0x01,
  0x14, 0x00, 0x00, 0x00, 0x1c, 0x00, 0x00, 0x00, 0x1c, 0x00, 0x00, 0x00,
  0x0d, 0x00, 0x00, 0x00, 0x68, 0x00, 0x00, 0x00, 0x02, 0x00, 0x00, 0x00,
  0xff, 0xff, 0xff, 0xff, 0x10, 0x00, 0x00, 0x00, 0xbc, 0xfb, 0xff, 0xff,
  0x4c, 0x00, 0x00, 0x00, 0x73, 0x65, 0x71, 0x75, 0x65, 0x6e, 0x74, 0x69,
  0x61, 0x6c, 0x2f, 0x64, 0x65, 0x6e, 0x73, 0x65, 0x5f, 0x31, 0x2f, 0x4d,
  0x61, 0x74, 0x4d, 0x75, 0x6c, 0x3b, 0x73, 0x65, 0x71, 0x75, 0x65, 0x6e,
  0x74, 0x69, 0x61, 0x6c, 0x2f, 0x64, 0x65, 0x6e, 0x73, 0x65, 0x5f, 0x31,
  0x2f, 0x52, 0x65, 0x6c, 0x75, 0x3b, 0x73, 0x65, 0x71, 0x75, 0x65, 0x6e,
  0x74, 0x69, 0x61, 0x6c, 0x2f, 0x64, 0x65, 0x6e, 0x73, 0x65, 0x5f, 0x31,
  0x2f, 0x42, 0x69, 0x61, 0x73, 0x41, 0x64, 0x64, 0x00, 0x00, 0x00, 0x00,
  0x02, 0x00, 0x00, 0x00, 0x01, 0x00, 0x00, 0x00, 0x10, 0x00, 0x00, 0x00,
  0x5e, 0xfc, 0xff, 0xff, 0x00, 0x00, 0x00, 0x01, 0x14, 0x00, 0x00, 0x00,
  0x1c, 0x00, 0x00, 0x00, 0x1c, 0x00, 0x00, 0x00, 0x0c, 0x00, 0x00, 0x00,
  0x60, 0x00, 0x00, 0x00, 0x02, 0x00, 0x00, 0x00, 0xff, 0xff, 0xff, 0xff,
  0x06, 0x00, 0x00, 0x00, 0x48, 0xfc, 0xff, 0xff, 0x46, 0x00, 0x00, 0x00,
  0x73, 0x65, 0x71, 0x75, 0x65, 0x6e, 0x74, 0x69, 0x61, 0x6c, 0x2f, 0x64,
  0x65, 0x6e, 0x73, 0x65, 0x2f, 0x4d, 0x61, 0x74, 0x4d, 0x75, 0x6c, 0x3b,
  0x73, 0x65, 0x71, 0x75, 0x65, 0x6e, 0x74, 0x69, 0x61, 0x6c, 0x2f, 0x64,
  0x65, 0x6e, 0x73, 0x65, 0x2f, 0x52, 0x65, 0x6c, 0x75, 0x3b, 0x73, 0x65,
  0x71, 0x75, 0x65, 0x6e, 0x74, 0x69, 0x61, 0x6c, 0x2f, 0x64, 0x65, 0x6e,
  0x73, 0x65, 0x2f, 0x42, 0x69, 0x61, 0x73, 0x41, 0x64, 0x64, 0x00, 0x00,
  0x02, 0x00, 0x00, 0x00, 0x01, 0x00, 0x00, 0x00, 0x06, 0x00, 0x00, 0x00,
  0x4e, 0xfd, 0xff, 0xff, 0x00, 0x00, 0x00, 0x01, 0x10, 0x00, 0x00, 0x00,
  0x10, 0x00, 0x00, 0x00, 0x0b, 0x00, 0x00, 0x00, 0x28, 0x00, 0x00, 0x00,
  0xbc, 0xfc, 0xff, 0xff, 0x19, 0x00, 0x00, 0x00, 0x73, 0x65, 0x71, 0x75,
  0x65, 0x6e, 0x74, 0x69, 0x61, 0x6c, 0x2f, 0x64, 0x65, 0x6e, 0x73, 0x65,
  0x5f, 0x34, 0x2f, 0x4d, 0x61, 0x74, 0x4d, 0x75, 0x6c, 0x00, 0x00, 0x00,
  0x02, 0x00, 0x00, 0x00, 0x05, 0x00, 0x00, 0x00, 0x10, 0x00, 0x00, 0x00,
  0x96, 0xfd, 0xff, 0xff, 0x00, 0x00, 0x00, 0x01, 0x10, 0x00, 0x00, 0x00,
  0x10, 0x00, 0x00, 0x00, 0x0a, 0x00, 0x00, 0x00, 0x28, 0x00, 0x00, 0x00,
  0x04, 0xfd, 0xff, 0xff, 0x19, 0x00, 0x00, 0x00, 0x73, 0x65, 0x71, 0x75,
  0x65, 0x6e, 0x74, 0x69, 0x61, 0x6c, 0x2f, 0x64, 0x65, 0x6e, 0x73, 0x65,
  0x5f, 0x33, 0x2f, 0x4d, 0x61, 0x74, 0x4d, 0x75, 0x6c, 0x00, 0x00, 0x00,
  0x02, 0x00, 0x00, 0x00, 0x10, 0x00, 0x00, 0x00, 0x20, 0x00, 0x00, 0x00,
  0xde, 0xfd, 0xff, 0xff, 0x00, 0x00, 0x00, 0x01, 0x10, 0x00, 0x00, 0x00,
  0x10, 0x00, 0x00, 0x00, 0x09, 0x00, 0x00, 0x00, 0x28, 0x00, 0x00, 0x00,
  0x4c, 0xfd, 0xff, 0xff, 0x19, 0x00, 0x00, 0x00, 0x73, 0x65, 0x71, 0x75,
  0x65, 0x6e, 0x74, 0x69, 0x61, 0x6c, 0x2f, 0x64, 0x65, 0x6e, 0x73, 0x65,
  0x5f, 0x32, 0x2f, 0x4d, 0x61, 0x74, 0x4d, 0x75, 0x6c, 0x00, 0x00, 0x00,
  0x02, 0x00, 0x00, 0x00, 0x20, 0x00, 0x00, 0x00, 0x10, 0x00, 0x00, 0x00,
  0x26, 0xfe, 0xff, 0xff, 0x00, 0x00, 0x00, 0x01, 0x10, 0x00, 0x00, 0x00,
  0x10, 0x00, 0x00, 0x00, 0x08, 0x00, 0x00, 0x00, 0x28, 0x00, 0x00, 0x00,
  0x94, 0xfd, 0xff, 0xff, 0x19, 0x00, 0x00, 0x00, 0x73, 0x65, 0x71, 0x75,
  0x65, 0x6e, 0x74, 0x69, 0x61, 0x6c, 0x2f, 0x64, 0x65, 0x6e, 0x73, 0x65,
  0x5f, 0x31, 0x2f, 0x4d, 0x61, 0x74, 0x4d, 0x75, 0x6c, 0x00, 0x00, 0x00,
  0x02, 0x00, 0x00, 0x00, 0x10, 0x00, 0x00, 0x00, 0x06, 0x00, 0x00, 0x00,
  0x6e, 0xfe, 0xff, 0xff, 0x00, 0x00, 0x00, 0x01, 0x10, 0x00, 0x00, 0x00,
  0x10, 0x00, 0x00, 0x00, 0x07, 0x00, 0x00, 0x00, 0x24, 0x00, 0x00, 0x00,
  0xdc, 0xfd, 0xff, 0xff, 0x17, 0x00, 0x00, 0x00, 0x73, 0x65, 0x71, 0x75,
  0x65, 0x6e, 0x74, 0x69, 0x61, 0x6c, 0x2f, 0x64, 0x65, 0x6e, 0x73, 0x65,
  0x2f, 0x4d, 0x61, 0x74, 0x4d, 0x75, 0x6c, 0x00, 0x02, 0x00, 0x00, 0x00,
  0x06, 0x00, 0x00, 0x00, 0x03, 0x00, 0x00, 0x00, 0xb2, 0xfe, 0xff, 0xff,
  0x00, 0x00, 0x00, 0x01, 0x10, 0x00, 0x00, 0x00, 0x10, 0x00, 0x00, 0x00,
  0x06, 0x00, 0x00, 0x00, 0x34, 0x00, 0x00, 0x00, 0x20, 0xfe, 0xff, 0xff,
  0x27, 0x00, 0x00, 0x00, 0x73, 0x65, 0x71, 0x75, 0x65, 0x6e, 0x74, 0x69,
  0x61, 0x6c, 0x2f, 0x64, 0x65, 0x6e, 0x73, 0x65, 0x2f, 0x42, 0x69, 0x61,
  0x73, 0x41, 0x64, 0x64, 0x2f, 0x52, 0x65, 0x61, 0x64, 0x56, 0x61, 0x72,
  0x69, 0x61, 0x62, 0x6c, 0x65, 0x4f, 0x70, 0x00, 0x01, 0x00, 0x00, 0x00,
  0x06, 0x00, 0x00, 0x00, 0x02, 0xff, 0xff, 0xff, 0x00, 0x00, 0x00, 0x01,
  0x10, 0x00, 0x00, 0x00, 0x10, 0x00, 0x00, 0x00, 0x05, 0x00, 0x00, 0x00,
  0x38, 0x00, 0x00, 0x00, 0x70, 0xfe, 0xff, 0xff, 0x29, 0x00, 0x00, 0x00,
  0x73, 0x65, 0x71, 0x75, 0x65, 0x6e, 0x74, 0x69, 0x61, 0x6c, 0x2f, 0x64,
  0x65, 0x6e, 0x73, 0x65, 0x5f, 0x34, 0x2f, 0x42, 0x69, 0x61, 0x73, 0x41,
  0x64, 0x64, 0x2f, 0x52, 0x65, 0x61, 0x64, 0x56, 0x61, 0x72, 0x69, 0x61,
  0x62, 0x6c, 0x65, 0x4f, 0x70, 0x00, 0x00, 0x00, 0x01, 0x00, 0x00, 0x00,
  0x05, 0x00, 0x00, 0x00, 0x56, 0xff, 0xff, 0xff, 0x00, 0x00, 0x00, 0x01,
  0x10, 0x00, 0x00, 0x00, 0x10, 0x00, 0x00, 0x00, 0x04, 0x00, 0x00, 0x00,
  0x38, 0x00, 0x00, 0x00, 0xc4, 0xfe, 0xff, 0xff, 0x29, 0x00, 0x00, 0x00,
  0x73, 0x65, 0x71, 0x75, 0x65, 0x6e, 0x74, 0x69, 0x61, 0x6c, 0x2f, 0x64,
  0x65, 0x6e, 0x73, 0x65, 0x5f, 0x33, 0x2f, 0x42, 0x69, 0x61, 0x73, 0x41,
  0x64, 0x64, 0x2f, 0x52, 0x65, 0x61, 0x64, 0x56, 0x61, 0x72, 0x69, 0x61,
  0x62, 0x6c, 0x65, 0x4f, 0x70, 0x00, 0x00, 0x00, 0x01, 0x00, 0x00, 0x00,
  0x10, 0x00, 0x00, 0x00, 0xaa, 0xff, 0xff, 0xff, 0x00, 0x00, 0x00, 0x01,
  0x10, 0x00, 0x00, 0x00, 0x10, 0x00, 0x00, 0x00, 0x03, 0x00, 0x00, 0x00,
  0x38, 0x00, 0x00, 0x00, 0x18, 0xff, 0xff, 0xff, 0x29, 0x00, 0x00, 0x00,
  0x73, 0x65, 0x71, 0x75, 0x65, 0x6e, 0x74, 0x69, 0x61, 0x6c, 0x2f, 0x64,
  0x65, 0x6e, 0x73, 0x65, 0x5f, 0x32, 0x2f, 0x42, 0x69, 0x61, 0x73, 0x41,
  0x64, 0x64, 0x2f, 0x52, 0x65, 0x61, 0x64, 0x56, 0x61, 0x72, 0x69, 0x61,
  0x62, 0x6c, 0x65, 0x4f, 0x70, 0x00, 0x00, 0x00, 0x01, 0x00, 0x00, 0x00,
  0x20, 0x00, 0x00, 0x00, 0x00, 0x00, 0x16, 0x00, 0x18, 0x00, 0x14, 0x00,
  0x00, 0x00, 0x10, 0x00, 0x0c, 0x00, 0x08, 0x00, 0x00, 0x00, 0x00, 0x00,
  0x00, 0x00, 0x07, 0x00, 0x16, 0x00, 0x00, 0x00, 0x00, 0x00, 0x00, 0x01,
  0x10, 0x00, 0x00, 0x00, 0x10, 0x00, 0x00, 0x00, 0x02, 0x00, 0x00, 0x00,
  0x38, 0x00, 0x00, 0x00, 0x84, 0xff, 0xff, 0xff, 0x29, 0x00, 0x00, 0x00,
  0x73, 0x65, 0x71, 0x75, 0x65, 0x6e, 0x74, 0x69, 0x61, 0x6c, 0x2f, 0x64,
  0x65, 0x6e, 0x73, 0x65, 0x5f, 0x31, 0x2f, 0x42, 0x69, 0x61, 0x73, 0x41,
  0x64, 0x64, 0x2f, 0x52, 0x65, 0x61, 0x64, 0x56, 0x61, 0x72, 0x69, 0x61,
  0x62, 0x6c, 0x65, 0x4f, 0x70, 0x00, 0x00, 0x00, 0x01, 0x00, 0x00, 0x00,
  0x10, 0x00, 0x00, 0x00, 0x00, 0x00, 0x16, 0x00, 0x1c, 0x00, 0x18, 0x00,
  0x00, 0x00, 0x14, 0x00, 0x10, 0x00, 0x0c, 0x00, 0x00, 0x00, 0x00, 0x00,
  0x08, 0x00, 0x07, 0x00, 0x16, 0x00, 0x00, 0x00, 0x00, 0x00, 0x00, 0x01,
  0x14, 0x00, 0x00, 0x00, 0x20, 0x00, 0x00, 0x00, 0x20, 0x00, 0x00, 0x00,
  0x01, 0x00, 0x00, 0x00, 0x3c, 0x00, 0x00, 0x00, 0x02, 0x00, 0x00, 0x00,
  0xff, 0xff, 0xff, 0xff, 0x03, 0x00, 0x00, 0x00, 0x04, 0x00, 0x04, 0x00,
  0x04, 0x00, 0x00, 0x00, 0x1d, 0x00, 0x00, 0x00, 0x73, 0x65, 0x72, 0x76,
  0x69, 0x6e, 0x67, 0x5f, 0x64, 0x65, 0x66, 0x61, 0x75, 0x6c, 0x74, 0x5f,
  0x64, 0x65, 0x6e, 0x73, 0x65, 0x5f, 0x69, 0x6e, 0x70, 0x75, 0x74, 0x3a,
  0x30, 0x00, 0x00, 0x00, 0x02, 0x00, 0x00, 0x00, 0x01, 0x00, 0x00, 0x00,
  0x03, 0x00, 0x00, 0x00, 0x01, 0x00, 0x00, 0x00, 0x10, 0x00, 0x00, 0x00,
  0x0c, 0x00, 0x0c, 0x00, 0x0b, 0x00, 0x00, 0x00, 0x00, 0x00, 0x04, 0x00,
  0x0c, 0x00, 0x00, 0x00, 0x09, 0x00, 0x00, 0x00, 0x00, 0x00, 0x00, 0x09
};
unsigned int model_pred_tflite_len = 7860;
