/* Copyright 2023 The TensorFlow Authors. All Rights Reserved.

Licensed under the Apache License, Version 2.0 (the "License");
you may not use this file except in compliance with the License.
You may obtain a copy of the License at

    http://www.apache.org/licenses/LICENSE-2.0

Unless required by applicable law or agreed to in writing, software
distributed under the License is distributed on an "AS IS" BASIS,
WITHOUT WARRANTIES OR CONDITIONS OF ANY KIND, either express or implied.
See the License for the specific language governing permissions and
limitations under the License.
==============================================================================*/

// Automatically created from a TensorFlow Lite flatbuffer using the command:
// xxd -i model.tflite > model.cc

// This is a standard TensorFlow Lite model file that has been converted into a
// C data array, so it can be easily compiled into a binary for devices that
// don't have a file system.

// See train/README.md for a full description of the creation process.

#include "model.h"

// Keep aligned to 16 bytes for CMSIS
alignas(16) const unsigned char g_model[] = {
0x1c, 0x00, 0x00, 0x00, 0x54, 0x46, 0x4c, 0x33, 0x14, 0x00, 0x20, 0x00,
  0x1c, 0x00, 0x18, 0x00, 0x14, 0x00, 0x10, 0x00, 0x0c, 0x00, 0x00, 0x00,
  0x08, 0x00, 0x04, 0x00, 0x14, 0x00, 0x00, 0x00, 0x1c, 0x00, 0x00, 0x00,
  0x90, 0x00, 0x00, 0x00, 0xe8, 0x00, 0x00, 0x00, 0x80, 0x16, 0x00, 0x00,
  0x90, 0x16, 0x00, 0x00, 0x60, 0x1e, 0x00, 0x00, 0x03, 0x00, 0x00, 0x00,
  0x01, 0x00, 0x00, 0x00, 0x10, 0x00, 0x00, 0x00, 0x00, 0x00, 0x0a, 0x00,
  0x10, 0x00, 0x0c, 0x00, 0x08, 0x00, 0x04, 0x00, 0x0a, 0x00, 0x00, 0x00,
  0x0c, 0x00, 0x00, 0x00, 0x1c, 0x00, 0x00, 0x00, 0x38, 0x00, 0x00, 0x00,
  0x0f, 0x00, 0x00, 0x00, 0x73, 0x65, 0x72, 0x76, 0x69, 0x6e, 0x67, 0x5f,
  0x64, 0x65, 0x66, 0x61, 0x75, 0x6c, 0x74, 0x00, 0x01, 0x00, 0x00, 0x00,
  0x04, 0x00, 0x00, 0x00, 0x98, 0xff, 0xff, 0xff, 0x0f, 0x00, 0x00, 0x00,
  0x04, 0x00, 0x00, 0x00, 0x07, 0x00, 0x00, 0x00, 0x64, 0x65, 0x6e, 0x73,
  0x65, 0x5f, 0x34, 0x00, 0x01, 0x00, 0x00, 0x00, 0x04, 0x00, 0x00, 0x00,
  0x4a, 0xea, 0xff, 0xff, 0x04, 0x00, 0x00, 0x00, 0x0b, 0x00, 0x00, 0x00,
  0x64, 0x65, 0x6e, 0x73, 0x65, 0x5f, 0x69, 0x6e, 0x70, 0x75, 0x74, 0x00,
  0x02, 0x00, 0x00, 0x00, 0x34, 0x00, 0x00, 0x00, 0x04, 0x00, 0x00, 0x00,
  0xdc, 0xff, 0xff, 0xff, 0x12, 0x00, 0x00, 0x00, 0x04, 0x00, 0x00, 0x00,
  0x13, 0x00, 0x00, 0x00, 0x43, 0x4f, 0x4e, 0x56, 0x45, 0x52, 0x53, 0x49,
  0x4f, 0x4e, 0x5f, 0x4d, 0x45, 0x54, 0x41, 0x44, 0x41, 0x54, 0x41, 0x00,
  0x08, 0x00, 0x0c, 0x00, 0x08, 0x00, 0x04, 0x00, 0x08, 0x00, 0x00, 0x00,
  0x11, 0x00, 0x00, 0x00, 0x04, 0x00, 0x00, 0x00, 0x13, 0x00, 0x00, 0x00,
  0x6d, 0x69, 0x6e, 0x5f, 0x72, 0x75, 0x6e, 0x74, 0x69, 0x6d, 0x65, 0x5f,
  0x76, 0x65, 0x72, 0x73, 0x69, 0x6f, 0x6e, 0x00, 0x13, 0x00, 0x00, 0x00,
  0x94, 0x15, 0x00, 0x00, 0x8c, 0x15, 0x00, 0x00, 0x3c, 0x15, 0x00, 0x00,
  0xa4, 0x14, 0x00, 0x00, 0x54, 0x14, 0x00, 0x00, 0x30, 0x14, 0x00, 0x00,
  0x08, 0x14, 0x00, 0x00, 0xb0, 0x13, 0x00, 0x00, 0x20, 0x12, 0x00, 0x00,
  0x10, 0x0a, 0x00, 0x00, 0x00, 0x02, 0x00, 0x00, 0xb0, 0x00, 0x00, 0x00,
  0xa8, 0x00, 0x00, 0x00, 0xa0, 0x00, 0x00, 0x00, 0x98, 0x00, 0x00, 0x00,
  0x90, 0x00, 0x00, 0x00, 0x88, 0x00, 0x00, 0x00, 0x68, 0x00, 0x00, 0x00,
  0x04, 0x00, 0x00, 0x00, 0x0e, 0xeb, 0xff, 0xff, 0x04, 0x00, 0x00, 0x00,
  0x54, 0x00, 0x00, 0x00, 0x0c, 0x00, 0x00, 0x00, 0x08, 0x00, 0x0e, 0x00,
  0x08, 0x00, 0x04, 0x00, 0x08, 0x00, 0x00, 0x00, 0x10, 0x00, 0x00, 0x00,
  0x24, 0x00, 0x00, 0x00, 0x00, 0x00, 0x06, 0x00, 0x08, 0x00, 0x04, 0x00,
  0x06, 0x00, 0x00, 0x00, 0x04, 0x00, 0x00, 0x00, 0x00, 0x00, 0x00, 0x00,
  0x00, 0x00, 0x0a, 0x00, 0x10, 0x00, 0x0c, 0x00, 0x08, 0x00, 0x04, 0x00,
  0x0a, 0x00, 0x00, 0x00, 0x02, 0x00, 0x00, 0x00, 0x02, 0x00, 0x00, 0x00,
  0x04, 0x00, 0x00, 0x00, 0x06, 0x00, 0x00, 0x00, 0x32, 0x2e, 0x31, 0x34,
  0x2e, 0x30, 0x00, 0x00, 0x6e, 0xeb, 0xff, 0xff, 0x04, 0x00, 0x00, 0x00,
  0x10, 0x00, 0x00, 0x00, 0x31, 0x2e, 0x35, 0x2e, 0x30, 0x00, 0x00, 0x00,
  0x00, 0x00, 0x00, 0x00, 0x00, 0x00, 0x00, 0x00, 0x80, 0xe3, 0xff, 0xff,
  0x84, 0xe3, 0xff, 0xff, 0x88, 0xe3, 0xff, 0xff, 0x8c, 0xe3, 0xff, 0xff,
  0x90, 0xe3, 0xff, 0xff, 0x9e, 0xeb, 0xff, 0xff, 0x04, 0x00, 0x00, 0x00,
  0x40, 0x01, 0x00, 0x00, 0x52, 0x31, 0x12, 0xbf, 0x0a, 0xd7, 0x04, 0x3f,
  0x5c, 0x6c, 0x24, 0xbe, 0x2d, 0xfc, 0xf4, 0x3e, 0xba, 0xd2, 0xb8, 0xbe,
  0xf2, 0x8e, 0x81, 0xbe, 0x6f, 0x10, 0x84, 0xbf, 0xba, 0xc0, 0x36, 0xbf,
  0xcf, 0x1f, 0x13, 0xbd, 0x2b, 0x42, 0x93, 0x3e, 0xb8, 0x3b, 0x16, 0xbe,
  0x8c, 0xda, 0x26, 0xbf, 0x35, 0x83, 0x4e, 0x3e, 0x5a, 0xe1, 0x04, 0x3f,
  0x82, 0xfc, 0x91, 0xbf, 0xf1, 0x71, 0xbf, 0xbf, 0x5f, 0xdb, 0x12, 0xbf,
  0x17, 0xeb, 0x04, 0x3f, 0x65, 0x71, 0xfa, 0x3d, 0x20, 0xbe, 0xe3, 0x3d,
  0x33, 0x38, 0xbc, 0x3e, 0x39, 0x09, 0x88, 0xbe, 0x9a, 0xae, 0x83, 0xbf,
  0xa5, 0xfc, 0x34, 0xbf, 0xfb, 0x47, 0xf9, 0x3c, 0x97, 0x57, 0xa0, 0x3e,
  0xa5, 0x28, 0x1a, 0xbe, 0x7f, 0x94, 0x26, 0xbf, 0xf3, 0x30, 0x09, 0x3f,
  0x87, 0x43, 0x05, 0x3f, 0xdf, 0x41, 0x91, 0xbf, 0xfe, 0x7b, 0xbf, 0xbf,
  0xd8, 0x53, 0x12, 0xbf, 0xf7, 0x03, 0x05, 0x3f, 0x46, 0x25, 0xbf, 0xbc,
  0x6e, 0x07, 0x55, 0x3e, 0xaa, 0xc0, 0xac, 0x3e, 0x53, 0x73, 0x85, 0xbe,
  0x54, 0xcf, 0x83, 0xbf, 0x0b, 0xca, 0x35, 0xbf, 0x83, 0x47, 0x08, 0xbe,
  0x89, 0xda, 0x9d, 0x3e, 0x1f, 0x19, 0x19, 0xbe, 0x09, 0x75, 0x26, 0xbf,
  0x9d, 0x5a, 0xe4, 0x3e, 0x2f, 0x34, 0x05, 0x3f, 0xf7, 0xbb, 0x91, 0xbf,
  0x88, 0x95, 0xbf, 0xbf, 0x92, 0x2e, 0x12, 0xbf, 0x1f, 0xb1, 0x04, 0x3f,
  0xb3, 0x76, 0x1f, 0xbe, 0xae, 0xad, 0x29, 0x3f, 0xc9, 0x8f, 0x23, 0xbe,
  0x2d, 0x37, 0x7e, 0xbe, 0x34, 0x3b, 0x84, 0xbf, 0x04, 0x55, 0x37, 0xbf,
  0x51, 0x37, 0x9c, 0x3d, 0x06, 0xd1, 0x8b, 0x3e, 0x14, 0x49, 0x14, 0xbe,
  0x46, 0x2b, 0x27, 0xbf, 0x51, 0xa8, 0x11, 0x3d, 0x5c, 0xa6, 0x04, 0x3f,
  0xce, 0x17, 0x92, 0xbf, 0x1f, 0x53, 0xbf, 0xbf, 0xcc, 0x8b, 0x12, 0xbf,
  0x47, 0x17, 0x05, 0x3f, 0xe7, 0x5c, 0x64, 0x3e, 0x4f, 0x75, 0xb3, 0x3c,
  0x07, 0x5c, 0x4b, 0xbe, 0x69, 0x72, 0x88, 0xbe, 0x14, 0xa0, 0x83, 0xbf,
  0x05, 0x01, 0x35, 0xbf, 0xcb, 0x39, 0x1e, 0xbe, 0xf6, 0xcc, 0xa4, 0x3e,
  0xd6, 0x11, 0x1b, 0xbe, 0xf1, 0x41, 0x26, 0xbf, 0x04, 0x63, 0x1d, 0x3f,
  0x1a, 0x69, 0x05, 0x3f, 0x5a, 0x75, 0x91, 0xbf, 0x72, 0xa3, 0xbf, 0xbf,
  0xea, 0xec, 0xff, 0xff, 0x04, 0x00, 0x00, 0x00, 0x00, 0x08, 0x00, 0x00,
  0xb2, 0xc4, 0x0e, 0xc0, 0x4e, 0x08, 0x0f, 0xbe, 0xf7, 0x0c, 0x4e, 0x3e,
  0x99, 0x38, 0x0d, 0x3f, 0xea, 0x36, 0xa7, 0x3e, 0x45, 0xb2, 0x9f, 0x3f,
  0xfd, 0xc0, 0x99, 0x3f, 0x96, 0x0d, 0xb5, 0x3e, 0x03, 0x5e, 0x97, 0x3e,
  0x18, 0x2f, 0x5a, 0x3e, 0x65, 0xbc, 0xa1, 0x3f, 0x19, 0xb7, 0x32, 0xbe,
  0x68, 0xe4, 0x33, 0xbc, 0x89, 0x86, 0xeb, 0xbe, 0x09, 0x31, 0x82, 0xc0,
  0x21, 0x5a, 0xad, 0x3f, 0x0e, 0xa7, 0x07, 0xbf, 0xd6, 0x4f, 0x73, 0xbe,
  0x22, 0xb4, 0xe7, 0x3f, 0x3e, 0xf9, 0xd6, 0x3e, 0xac, 0x80, 0x49, 0x3e,
  0x51, 0x85, 0x1f, 0xbe, 0xb8, 0x68, 0x0a, 0x3f, 0x96, 0x88, 0x4c, 0xbf,
  0x31, 0x9e, 0x23, 0x3f, 0x55, 0xa9, 0x92, 0xbf, 0xf8, 0x49, 0x11, 0x3f,
  0x02, 0x72, 0x2d, 0xc0, 0x16, 0xa4, 0xd0, 0x3e, 0xc5, 0xac, 0x96, 0xbd,
  0xd0, 0xb7, 0x9d, 0x3f, 0xd0, 0x66, 0x27, 0xbe, 0xea, 0x69, 0x29, 0xc0,
  0x48, 0x25, 0xf6, 0xbe, 0xc1, 0x4b, 0x0e, 0xbf, 0xaf, 0xf7, 0xbc, 0xbe,
  0x52, 0x6e, 0x48, 0xc0, 0x84, 0xc2, 0x0c, 0xc0, 0x8d, 0xc8, 0xa5, 0x3e,
  0x81, 0xd3, 0xb2, 0xbf, 0x9b, 0x66, 0x79, 0x3e, 0x33, 0xdf, 0x29, 0x3f,
  0x77, 0x71, 0x5d, 0xbe, 0x8c, 0x67, 0x4e, 0xbf, 0x3c, 0x78, 0xc6, 0xbc,
  0xb2, 0x11, 0x2c, 0xc0, 0x03, 0xf3, 0x77, 0xbe, 0x71, 0x70, 0x1e, 0xbf,
  0x08, 0x27, 0x77, 0x3e, 0x5f, 0xb7, 0xc8, 0xbb, 0xd7, 0xfc, 0x63, 0xbf,
  0xba, 0xc4, 0x8f, 0xbf, 0x90, 0xa9, 0x40, 0xbf, 0x64, 0xf7, 0x94, 0x3e,
  0xef, 0xff, 0x8d, 0xbf, 0x43, 0xbc, 0xbd, 0x3f, 0x03, 0xd9, 0x05, 0xbf,
  0xb3, 0x11, 0x84, 0x3f, 0x95, 0x1a, 0x91, 0x3e, 0xad, 0x20, 0xd0, 0xbf,
  0xb9, 0xea, 0x9d, 0xbf, 0x2a, 0xe8, 0x9b, 0xc0, 0xab, 0x2a, 0x7e, 0x3f,
  0x35, 0x5c, 0x9c, 0xbf, 0xa8, 0x10, 0xd5, 0xbd, 0x9a, 0x24, 0x8b, 0xbe,
  0xb7, 0xc0, 0xa0, 0xbe, 0x18, 0x25, 0x95, 0xbd, 0x0c, 0xfd, 0xda, 0x3b,
  0xff, 0xb9, 0xa6, 0x3d, 0x9b, 0xd2, 0x1b, 0xbe, 0x3a, 0xc0, 0x9c, 0xbc,
  0xe2, 0xbf, 0xd5, 0xbd, 0x0f, 0x5d, 0x0a, 0xbf, 0x94, 0x34, 0x76, 0xbe,
  0xba, 0xc7, 0x3d, 0x3d, 0x8c, 0xb4, 0x21, 0xbe, 0xed, 0xbe, 0x6a, 0x3d,
  0x4d, 0x7f, 0x70, 0x3c, 0x05, 0x04, 0x5d, 0xbe, 0xb0, 0x08, 0x85, 0x3d,
  0x72, 0x76, 0x8a, 0xbe, 0x85, 0xbf, 0xee, 0xbe, 0x0c, 0xc9, 0x97, 0xbe,
  0x22, 0x63, 0x86, 0x3d, 0x5a, 0xbf, 0x09, 0x3e, 0x83, 0xb1, 0x83, 0xbe,
  0x42, 0xb4, 0x12, 0x3e, 0xb8, 0x9c, 0x03, 0xbe, 0xd9, 0x3f, 0x0f, 0x3e,
  0x85, 0x18, 0x38, 0xbe, 0x91, 0x2d, 0xa7, 0x3d, 0x31, 0x25, 0x0e, 0xbf,
  0x45, 0x00, 0x51, 0x3c, 0x61, 0xbb, 0xb1, 0xbc, 0x15, 0x16, 0x40, 0xbd,
  0xe3, 0x1d, 0x4b, 0xbf, 0x83, 0xd5, 0x30, 0x3f, 0x46, 0x54, 0x8d, 0x3e,
  0xa0, 0x39, 0x39, 0x3f, 0x19, 0x73, 0xb0, 0x3d, 0x10, 0xe3, 0x31, 0x3f,
  0x12, 0x70, 0x11, 0x3f, 0x70, 0x06, 0xd6, 0x3e, 0x0e, 0x8e, 0x7b, 0xbe,
  0x30, 0x40, 0x6b, 0xbe, 0x45, 0x97, 0x5d, 0x3f, 0x23, 0x4b, 0x4c, 0xbe,
  0x82, 0x09, 0xbb, 0xbd, 0x82, 0x96, 0x6a, 0x3e, 0x2a, 0x1a, 0x85, 0x3d,
  0x06, 0x15, 0x87, 0x3e, 0x4d, 0x92, 0x3c, 0x3d, 0xb6, 0x8c, 0x21, 0xbd,
  0x62, 0x45, 0x44, 0x40, 0x25, 0x67, 0xa8, 0x3e, 0x95, 0xc9, 0x14, 0xbd,
  0x70, 0x7a, 0x21, 0xbe, 0xdd, 0x27, 0xb9, 0x3d, 0x72, 0x34, 0x97, 0xbf,
  0x15, 0xda, 0xf9, 0xbc, 0xe9, 0x46, 0x41, 0xbf, 0xb0, 0x9a, 0x0c, 0x3f,
  0xf2, 0x27, 0x0f, 0x3e, 0xb7, 0x6e, 0x86, 0x3e, 0x47, 0xcc, 0x89, 0x3f,
  0x8a, 0x11, 0x1c, 0x3e, 0xe9, 0x77, 0x94, 0x3f, 0x77, 0xc8, 0xdc, 0x3d,
  0xab, 0xcb, 0x94, 0xbe, 0xc1, 0x17, 0x52, 0xbe, 0xd8, 0xa9, 0xa5, 0xbe,
  0x1b, 0x16, 0xb7, 0xbc, 0xe2, 0xb5, 0xa7, 0xbe, 0xe7, 0x54, 0x18, 0xbe,
  0x74, 0x8f, 0xca, 0xbb, 0xc0, 0x9b, 0x34, 0x3d, 0xb4, 0x30, 0x1a, 0xbe,
  0xb6, 0xd8, 0xa2, 0xbe, 0x0d, 0x59, 0x6c, 0xbe, 0x39, 0x70, 0xad, 0xbe,
  0x66, 0x0b, 0x88, 0xbd, 0xba, 0x70, 0xb3, 0x3d, 0x44, 0x4f, 0x4c, 0xbe,
  0xd7, 0x93, 0xca, 0xbe, 0x2b, 0x59, 0x27, 0x3d, 0xf0, 0x52, 0x12, 0xbe,
  0xd1, 0x81, 0x04, 0xbe, 0x32, 0xec, 0xba, 0x3d, 0x71, 0x43, 0xcb, 0xbe,
  0xd8, 0x28, 0x92, 0xbe, 0x21, 0x72, 0x4d, 0x3d, 0x90, 0xc1, 0x47, 0xbe,
  0xed, 0xc8, 0x26, 0x3d, 0x12, 0x73, 0x80, 0x3e, 0x8f, 0x6d, 0xe4, 0xbe,
  0xa7, 0xbd, 0xae, 0xbd, 0xef, 0xb2, 0x3c, 0xbd, 0x00, 0x25, 0xaf, 0xbe,
  0x63, 0x46, 0xa6, 0x3c, 0x76, 0x53, 0x03, 0xc0, 0x97, 0xc6, 0x85, 0x3f,
  0xb5, 0x9d, 0x64, 0x3e, 0x0b, 0x79, 0x35, 0xbe, 0x7c, 0xe3, 0x10, 0x3e,
  0xdc, 0xcd, 0x3c, 0xbd, 0x92, 0x11, 0x67, 0xbe, 0xfc, 0x66, 0x85, 0x3e,
  0x10, 0x1a, 0xaf, 0xbe, 0x4f, 0xc3, 0x35, 0x3e, 0xba, 0x4a, 0xb7, 0x3e,
  0xc9, 0xe0, 0xcb, 0xbc, 0x4a, 0xb7, 0x22, 0x3e, 0xaa, 0xaa, 0x5a, 0x3d,
  0x52, 0x47, 0x86, 0xbd, 0x2f, 0x99, 0xa0, 0x3c, 0xa5, 0x22, 0x2b, 0xbf,
  0x16, 0xa0, 0xac, 0xbe, 0xfa, 0x22, 0x18, 0xbe, 0x83, 0xcb, 0x5c, 0x3e,
  0x56, 0x4f, 0x2b, 0xbe, 0x27, 0x55, 0x8b, 0x3e, 0x7c, 0xa0, 0x41, 0x3e,
  0xc0, 0x2b, 0x77, 0xbc, 0xea, 0x0b, 0x2e, 0x3d, 0x27, 0x57, 0x70, 0xbe,
  0xcd, 0x47, 0x5b, 0xbe, 0x51, 0x38, 0x6a, 0xbf, 0x52, 0xe0, 0x77, 0xbd,
  0x84, 0x7e, 0x09, 0xbe, 0x1e, 0xb6, 0x81, 0xbf, 0xab, 0xb5, 0x32, 0x3f,
  0x19, 0x69, 0xdd, 0xbe, 0xb0, 0x9f, 0x96, 0xbf, 0xe1, 0xc0, 0xb2, 0xbe,
  0xf3, 0xd2, 0x13, 0xbe, 0xa8, 0xda, 0x20, 0xbf, 0x1f, 0xc7, 0x63, 0x3f,
  0xcf, 0x3b, 0x92, 0xbf, 0x3d, 0x71, 0xfb, 0xbe, 0xf5, 0xae, 0x92, 0xbd,
  0x83, 0x86, 0x55, 0xbf, 0x1c, 0xe7, 0x97, 0xbf, 0x1a, 0x9b, 0xf5, 0x3c,
  0x64, 0x23, 0x0d, 0xbe, 0x1a, 0x9c, 0xea, 0x3e, 0x6d, 0x35, 0x71, 0xc0,
  0x4f, 0x6b, 0x07, 0xbe, 0x26, 0xe1, 0x4e, 0x3d, 0x2b, 0x6f, 0x0e, 0xbf,
  0xf4, 0x95, 0xea, 0xbd, 0x25, 0x2f, 0xe6, 0xbe, 0xed, 0xed, 0xe8, 0xbe,
  0x8d, 0x61, 0xbc, 0x3c, 0x88, 0x7b, 0x2f, 0x3e, 0x91, 0xf0, 0xd1, 0xbe,
  0xb8, 0x88, 0xa3, 0xbf, 0xf0, 0x12, 0x9b, 0x3f, 0xf0, 0x16, 0xa6, 0xbf,
  0xf4, 0x26, 0x68, 0xbf, 0x7e, 0xd9, 0x64, 0xc0, 0xe3, 0xe0, 0x2a, 0xc0,
  0xbf, 0x81, 0x7a, 0x3a, 0x1e, 0xf3, 0x84, 0x3f, 0x40, 0x83, 0x8d, 0x3d,
  0x3c, 0x68, 0xac, 0x3e, 0xf9, 0xde, 0xf1, 0xbe, 0x41, 0x83, 0xb5, 0xbf,
  0xac, 0x9c, 0xcf, 0xbe, 0x30, 0x61, 0xd8, 0x3e, 0xaf, 0xe7, 0x37, 0xbf,
  0x15, 0xc0, 0x91, 0xbe, 0x0a, 0x95, 0x3a, 0xbe, 0x47, 0x39, 0x19, 0xbe,
  0x10, 0x26, 0x7b, 0xbe, 0x3f, 0xee, 0x1a, 0xbd, 0x6f, 0x9c, 0x8d, 0xbe,
  0x71, 0x6d, 0x0d, 0xbf, 0x1b, 0x4c, 0x3a, 0xbc, 0xc0, 0x89, 0x47, 0x3f,
  0xe1, 0x58, 0x70, 0x3e, 0xcf, 0xba, 0x3b, 0x3e, 0x2e, 0x86, 0xae, 0x3d,
  0x85, 0xc8, 0x30, 0xbf, 0xa2, 0x56, 0x57, 0xbe, 0x28, 0xf4, 0x0b, 0xbd,
  0x3c, 0x23, 0xea, 0xbd, 0x41, 0x3e, 0x30, 0xbe, 0x93, 0x7e, 0xe5, 0x3e,
  0xf7, 0x12, 0x6c, 0xbe, 0x17, 0x70, 0x7e, 0x3e, 0x80, 0x6b, 0x1c, 0xbe,
  0xd8, 0xf3, 0x36, 0x3e, 0x38, 0xcb, 0xee, 0xbf, 0x8d, 0xdd, 0x07, 0xbf,
  0xb2, 0xf7, 0x9c, 0x3f, 0x5c, 0x1b, 0xdf, 0xbd, 0xe2, 0x81, 0x1f, 0x3e,
  0x5e, 0xc6, 0x29, 0xbf, 0x5e, 0x43, 0x7b, 0x3e, 0x95, 0xae, 0x78, 0xbe,
  0x9e, 0x6c, 0x2a, 0xbf, 0x72, 0xb7, 0x28, 0x3e, 0x94, 0xb2, 0x47, 0xbe,
  0xee, 0x11, 0x97, 0xbe, 0x89, 0x07, 0xdd, 0xbd, 0x0e, 0x8d, 0x8d, 0x3e,
  0xf5, 0xcf, 0x3b, 0xbe, 0x69, 0xa6, 0xba, 0xbe, 0x92, 0x7a, 0x95, 0xbe,
  0x6a, 0x57, 0x32, 0xbe, 0xa7, 0xe2, 0x00, 0xbf, 0xcf, 0x20, 0x24, 0x3e,
  0x72, 0x35, 0x19, 0xbe, 0x88, 0x56, 0x1b, 0x3e, 0xa1, 0xd4, 0x22, 0xbf,
  0xc9, 0x23, 0xe9, 0xbe, 0xf3, 0xd6, 0xc4, 0xbd, 0x94, 0xe8, 0xeb, 0xbe,
  0x60, 0x65, 0xea, 0xbd, 0xad, 0x99, 0x5c, 0xbe, 0x24, 0xa0, 0x16, 0xbe,
  0x6e, 0xd8, 0x88, 0xbe, 0x86, 0x2c, 0xc7, 0xbd, 0x40, 0x66, 0xc6, 0xbe,
  0x18, 0x7d, 0x08, 0x3e, 0x37, 0x71, 0xb4, 0xbe, 0x63, 0xc1, 0x40, 0xbe,
  0x34, 0x53, 0x77, 0xbf, 0xdb, 0x78, 0xe0, 0x3e, 0xc1, 0xf4, 0x85, 0xbe,
  0x33, 0x34, 0x2f, 0x3f, 0x95, 0x72, 0x46, 0xbd, 0x28, 0x4a, 0xf4, 0x3e,
  0xe9, 0x0a, 0x0d, 0x3f, 0x76, 0xd8, 0xf2, 0x3e, 0x89, 0xfa, 0xab, 0xbd,
  0x2a, 0xd2, 0x32, 0xbe, 0x62, 0x66, 0x4d, 0x3f, 0xcc, 0xf7, 0x63, 0xbf,
  0x3d, 0xa8, 0x3d, 0x3e, 0x7d, 0x50, 0x96, 0x3e, 0x70, 0x21, 0xf3, 0xbd,
  0xd6, 0x2f, 0x46, 0xbc, 0x68, 0xaa, 0x65, 0xbd, 0xee, 0xc7, 0xbb, 0xbe,
  0x43, 0x40, 0x3d, 0x40, 0x43, 0x81, 0x18, 0xbf, 0x56, 0x52, 0x24, 0xbf,
  0xba, 0x90, 0xc1, 0x3d, 0x97, 0xa1, 0x4b, 0xbe, 0xdd, 0x5a, 0x91, 0xbf,
  0xe8, 0x73, 0x4d, 0xbe, 0xd9, 0xa1, 0x55, 0xbf, 0x1a, 0x2b, 0x00, 0x3f,
  0xae, 0x74, 0x87, 0xbe, 0xfc, 0x3f, 0x07, 0x3e, 0x7d, 0x88, 0x77, 0x3f,
  0x1c, 0x23, 0xa2, 0x3e, 0xf6, 0x94, 0xb4, 0x3f, 0x0b, 0x5e, 0x16, 0x3f,
  0x5d, 0x69, 0x28, 0xbf, 0x95, 0xd0, 0x83, 0xbc, 0xd5, 0x58, 0x36, 0xc0,
  0x18, 0xfe, 0xc3, 0x3e, 0x4d, 0x4f, 0x26, 0xbe, 0x4b, 0x5e, 0x89, 0xbf,
  0x3e, 0x86, 0x8e, 0x3f, 0x23, 0x4f, 0xe8, 0xbe, 0x8c, 0x91, 0x19, 0xbf,
  0xb5, 0x05, 0x91, 0xbf, 0x91, 0x9e, 0x3f, 0xbe, 0xa1, 0xbd, 0xbe, 0x3d,
  0x71, 0xb2, 0xd8, 0xbe, 0x04, 0x5d, 0x4f, 0x3e, 0x3c, 0x92, 0x83, 0x3f,
  0x55, 0x15, 0x92, 0xbc, 0x24, 0x97, 0x44, 0xbd, 0x38, 0x3a, 0xb1, 0x3e,
  0x63, 0xc9, 0xb7, 0x3d, 0xde, 0x9b, 0x8e, 0xbe, 0x2b, 0x78, 0x5d, 0xbe,
  0x44, 0x2f, 0xfb, 0xbe, 0x52, 0xca, 0x28, 0x3e, 0x5f, 0xd8, 0x77, 0x3f,
  0x4f, 0x11, 0xa6, 0xbf, 0x51, 0x5a, 0x8e, 0xbe, 0x3e, 0xc7, 0x74, 0x3f,
  0x7d, 0xf3, 0xdc, 0x3f, 0xfc, 0x04, 0x6b, 0xbf, 0x07, 0x19, 0xc6, 0x3e,
  0x27, 0xf1, 0xe4, 0x3e, 0x43, 0xc0, 0xd5, 0x3e, 0xeb, 0x26, 0x2d, 0xbf,
  0x01, 0x98, 0x13, 0x3e, 0xbc, 0x89, 0x51, 0xc0, 0x60, 0x88, 0xb0, 0xbc,
  0x3c, 0x15, 0x1b, 0x3e, 0xb1, 0xcc, 0x95, 0x3f, 0x9c, 0xd7, 0x57, 0x3d,
  0x6b, 0xc0, 0xab, 0xbf, 0x09, 0xec, 0x08, 0x3f, 0x80, 0xd5, 0xca, 0xbe,
  0x76, 0xa1, 0x83, 0xbf, 0x76, 0x63, 0x89, 0x3c, 0x1d, 0xbd, 0xda, 0xbf,
  0x2f, 0x37, 0x12, 0xbd, 0x1a, 0xe6, 0xcb, 0x3f, 0x37, 0x9c, 0xd4, 0xbd,
  0x26, 0x50, 0x33, 0xbf, 0xe9, 0xfb, 0xa7, 0x3f, 0x56, 0x30, 0xfd, 0xbf,
  0xfd, 0x04, 0x5e, 0x3f, 0x02, 0xed, 0x0b, 0xbe, 0xe0, 0x91, 0x5b, 0x3f,
  0xb4, 0x2b, 0x2f, 0xbf, 0xe4, 0xea, 0x76, 0x3f, 0xe5, 0x2c, 0xea, 0xbe,
  0xf6, 0xae, 0x85, 0xbf, 0xb6, 0x09, 0x28, 0x3f, 0xc0, 0x15, 0x18, 0x3f,
  0xe8, 0xf7, 0x2b, 0xbc, 0x72, 0xcf, 0xd7, 0xbd, 0xc1, 0xab, 0xe5, 0x3e,
  0xf9, 0x0e, 0x4d, 0xbf, 0x09, 0xd5, 0x3e, 0x3f, 0x6a, 0x3d, 0xd0, 0x3e,
  0xf2, 0xfd, 0x40, 0x3f, 0xbd, 0xe7, 0xfb, 0x3d, 0x55, 0x81, 0x3a, 0x3f,
  0x38, 0x04, 0x16, 0x3f, 0x4a, 0xb9, 0xdc, 0x3e, 0xe2, 0xf1, 0xd4, 0xbe,
  0xf0, 0xea, 0x7c, 0xbe, 0x94, 0x13, 0x64, 0x3f, 0x1e, 0xa4, 0x4b, 0xbe,
  0xe9, 0x4e, 0x89, 0xbd, 0xad, 0x6f, 0x67, 0x3e, 0xe7, 0x0e, 0xba, 0x3d,
  0xe8, 0xc4, 0xa2, 0x3e, 0xc2, 0x20, 0xd9, 0xbd, 0x61, 0xe8, 0x8e, 0x3c,
  0x97, 0xc6, 0x47, 0x40, 0x9a, 0xb5, 0xc0, 0x3e, 0xb2, 0x43, 0x69, 0x3d,
  0xd0, 0x88, 0xe9, 0x3c, 0xf2, 0xdb, 0xe8, 0x3d, 0xda, 0x52, 0x9a, 0xbf,
  0xfe, 0x3b, 0xf2, 0xbc, 0xf5, 0x97, 0x43, 0xbf, 0xdd, 0x82, 0x10, 0x3f,
  0x91, 0xf1, 0x46, 0x3e, 0xb2, 0x68, 0x96, 0x3e, 0x3d, 0xe1, 0x8b, 0x3f,
  0x05, 0x8f, 0x06, 0x3e, 0xc9, 0x43, 0x91, 0x3f, 0x34, 0xc5, 0x3e, 0x3f,
  0xa4, 0xd7, 0xb1, 0xbf, 0x07, 0xfd, 0xa8, 0x3e, 0x1d, 0x97, 0x44, 0xbf,
  0xa7, 0x69, 0x83, 0x3e, 0x07, 0xa4, 0xb4, 0xbe, 0x01, 0x2d, 0x2b, 0x3f,
  0xca, 0x82, 0xed, 0x3f, 0x99, 0x5d, 0x4d, 0xbf, 0xc2, 0x68, 0x50, 0x3f,
  0xb8, 0x25, 0x01, 0x3f, 0xb6, 0x50, 0xc3, 0x3e, 0x54, 0xc8, 0x68, 0xbe,
  0x5a, 0x05, 0x9c, 0xbf, 0x1e, 0xaf, 0xf0, 0xbf, 0xfb, 0x40, 0xab, 0x3f,
  0x8c, 0xd7, 0xa3, 0x3d, 0xb5, 0x4a, 0x1c, 0x3e, 0xfc, 0x8c, 0x07, 0x3f,
  0x2d, 0xff, 0xe7, 0x39, 0x3c, 0x1d, 0x7b, 0xbe, 0x6f, 0x72, 0x5e, 0x3d,
  0x7c, 0x5b, 0x04, 0x3f, 0xe5, 0xa9, 0xbc, 0xbf, 0x83, 0x41, 0xaf, 0x3f,
  0x9a, 0x43, 0x82, 0xc0, 0xb7, 0xee, 0xa4, 0xbe, 0x31, 0x0d, 0x73, 0xbe,
  0x32, 0xdb, 0x48, 0x3e, 0x93, 0x6c, 0x08, 0xbf, 0x3a, 0x24, 0xa9, 0x3e,
  0x47, 0x1c, 0x5e, 0x3f, 0x2c, 0xde, 0x98, 0xbb, 0xd2, 0x80, 0x0a, 0xbf,
  0x46, 0x45, 0x55, 0xbe, 0x4a, 0x0b, 0x03, 0x3f, 0xa6, 0xee, 0x4f, 0xc0,
  0xf2, 0x5b, 0x39, 0x3f, 0xd2, 0xdc, 0x9a, 0xbf, 0xd5, 0x09, 0xed, 0xbe,
  0x9b, 0xf9, 0x39, 0xbf, 0xed, 0x10, 0x0b, 0xc0, 0x66, 0x6c, 0xa1, 0x3f,
  0x87, 0x4c, 0x80, 0xbe, 0x44, 0x6b, 0x8a, 0xbf, 0xa8, 0x57, 0xb7, 0xbe,
  0xad, 0xb7, 0xbf, 0xbf, 0x36, 0x04, 0x4b, 0x3d, 0xfa, 0xc9, 0x8e, 0xbe,
  0xc8, 0xd5, 0x9e, 0x3d, 0x12, 0x8c, 0xfb, 0x3e, 0x9f, 0xb5, 0xef, 0xbe,
  0x09, 0x85, 0x21, 0xbd, 0x0a, 0xed, 0x88, 0xbe, 0x13, 0xe2, 0x4d, 0xc0,
  0xb4, 0x26, 0x5f, 0x3f, 0xac, 0x47, 0x12, 0xc0, 0x0b, 0x8d, 0x5e, 0xbe,
  0xd6, 0x5b, 0x82, 0x3e, 0x7e, 0x9a, 0xc3, 0xbf, 0x54, 0x0d, 0x3a, 0x3f,
  0x2c, 0xed, 0x52, 0xbe, 0x86, 0x07, 0xaa, 0xbe, 0x3f, 0xb3, 0x5b, 0xbe,
  0x90, 0xd6, 0xd8, 0xbf, 0x28, 0xe8, 0x8b, 0xbf, 0xe9, 0x4d, 0x0d, 0xbe,
  0x42, 0xf6, 0xf1, 0xbf, 0x3b, 0x8d, 0x0c, 0x3f, 0x20, 0x57, 0x93, 0xbe,
  0xa0, 0x66, 0x83, 0xbe, 0x42, 0x17, 0xd7, 0x3f, 0x50, 0x9d, 0x46, 0xbf,
  0xb5, 0x73, 0x39, 0x3e, 0x72, 0xeb, 0x89, 0xbf, 0xc9, 0x04, 0xb2, 0xbe,
  0x29, 0xbb, 0x53, 0x3e, 0xd8, 0xa6, 0x3b, 0xc0, 0xa1, 0x07, 0x98, 0xbe,
  0x61, 0xdf, 0x03, 0x3f, 0xa4, 0x89, 0x13, 0x3d, 0x1d, 0x90, 0x79, 0xbe,
  0xc3, 0x0b, 0x2e, 0x3f, 0x9b, 0xf5, 0x92, 0xbf, 0x7d, 0x3c, 0x8d, 0x3f,
  0xdb, 0x87, 0x4c, 0xbe, 0x14, 0xbf, 0xd9, 0x3e, 0xc9, 0x50, 0x91, 0xbf,
  0x8f, 0xf4, 0xbe, 0x3e, 0xfb, 0xcf, 0x14, 0x3f, 0xb5, 0xaf, 0x8e, 0x3e,
  0x68, 0xf4, 0x55, 0x3f, 0xd6, 0x7b, 0x3e, 0x3f, 0x2c, 0x16, 0x47, 0xbe,
  0x3e, 0x46, 0x86, 0x3e, 0x9b, 0x1a, 0x66, 0x3f, 0xf6, 0xf4, 0xff, 0xff,
  0x04, 0x00, 0x00, 0x00, 0x00, 0x08, 0x00, 0x00, 0x83, 0x97, 0x8d, 0xbe,
  0x86, 0xc9, 0x83, 0xc0, 0x09, 0x39, 0x18, 0x3f, 0x9e, 0x32, 0x4f, 0xbf,
  0x99, 0x37, 0x16, 0x3f, 0x1a, 0x02, 0x8f, 0x3f, 0x1c, 0xea, 0x0e, 0xbe,
  0x77, 0x67, 0x11, 0x3f, 0x20, 0x45, 0x6b, 0xbe, 0x80, 0x7d, 0xdc, 0xbd,
  0xd7, 0x91, 0x87, 0xbe, 0x59, 0x88, 0x83, 0xbe, 0x57, 0x65, 0x90, 0x3f,
  0x20, 0xaf, 0xb9, 0x3d, 0x08, 0xcb, 0x97, 0xbc, 0xf3, 0x3c, 0x04, 0xbf,
  0xab, 0xbf, 0xb0, 0xbd, 0x29, 0x55, 0x88, 0xbe, 0x70, 0xde, 0x4b, 0x3f,
  0x0f, 0xaa, 0xbc, 0xbf, 0x61, 0xc5, 0x99, 0xbe, 0xe1, 0x1b, 0x3e, 0xbf,
  0xbc, 0x0a, 0x3f, 0x3c, 0xcb, 0x19, 0x29, 0x3f, 0xf5, 0x49, 0x3e, 0xbe,
  0x16, 0x54, 0xbe, 0x3e, 0xd3, 0x64, 0x30, 0x3d, 0x08, 0xba, 0xab, 0xbe,
  0x5d, 0x20, 0xe8, 0x3e, 0xd7, 0x0e, 0x85, 0xbd, 0xb1, 0x66, 0x10, 0xc0,
  0xeb, 0x5a, 0x32, 0xbf, 0x40, 0x64, 0x00, 0xbe, 0x67, 0x82, 0xf5, 0xbc,
  0x2e, 0x93, 0x7a, 0xbe, 0xbd, 0x7a, 0xe8, 0x3d, 0xf0, 0x97, 0xcd, 0xbe,
  0xac, 0x2c, 0xea, 0xbc, 0xd0, 0x25, 0x74, 0xbe, 0xb0, 0x33, 0x7f, 0x3e,
  0xb1, 0xe5, 0xdc, 0xbd, 0x78, 0xf2, 0x47, 0xbe, 0x82, 0xd9, 0x76, 0x3d,
  0x2a, 0x3d, 0x13, 0xbd, 0x5a, 0xbc, 0x65, 0x3c, 0x68, 0x4f, 0x7c, 0xbe,
  0x77, 0x4c, 0x53, 0xbe, 0x13, 0xd7, 0xa7, 0xbe, 0x30, 0xc7, 0xf4, 0xbe,
  0x89, 0xd3, 0xae, 0x3d, 0xd5, 0x11, 0x15, 0xbf, 0x51, 0xe4, 0xac, 0xbe,
  0x16, 0x3f, 0xa6, 0x3e, 0xfc, 0x6b, 0xd3, 0xbf, 0x43, 0xea, 0x5f, 0xbe,
  0xb6, 0xe6, 0x86, 0xbf, 0x10, 0x9c, 0x7d, 0x3e, 0xe0, 0x0f, 0x70, 0xc0,
  0xdb, 0x61, 0x51, 0x3c, 0x2f, 0xd7, 0x43, 0xbf, 0x36, 0xa6, 0x16, 0xbe,
  0x29, 0x99, 0x67, 0x3e, 0xbb, 0xee, 0xa2, 0xbb, 0xea, 0x3a, 0xf7, 0xc0,
  0x3d, 0xb3, 0x1f, 0x3e, 0x5b, 0x6e, 0x40, 0xbe, 0x8a, 0x86, 0x23, 0xbf,
  0x47, 0x15, 0x10, 0x3e, 0x32, 0x0a, 0x75, 0x3f, 0x76, 0x22, 0xd8, 0xbd,
  0xe8, 0x29, 0xef, 0xbd, 0x9e, 0x7c, 0xc9, 0x3e, 0xf2, 0x6e, 0xf3, 0x3d,
  0x88, 0x0b, 0x0d, 0xbf, 0x2e, 0xc2, 0xff, 0xbb, 0x9b, 0x26, 0x00, 0xbe,
  0x48, 0x13, 0x38, 0xbf, 0x4d, 0x44, 0x5e, 0x3e, 0xb0, 0x0c, 0x33, 0xbf,
  0xd8, 0x83, 0x4d, 0xc0, 0xc1, 0x85, 0xfb, 0x3e, 0x78, 0xa9, 0x74, 0x3f,
  0x87, 0xb2, 0x83, 0xbf, 0x39, 0x9e, 0x98, 0xbf, 0xf9, 0x85, 0xa8, 0xbd,
  0x15, 0xe5, 0x32, 0xc0, 0x31, 0x89, 0x20, 0xbf, 0x9d, 0x5c, 0x33, 0xbf,
  0x33, 0xa2, 0xff, 0x3c, 0x09, 0xbf, 0x91, 0xbf, 0x60, 0xec, 0xf0, 0x3d,
  0x9f, 0x0e, 0x87, 0xbf, 0x2d, 0x6b, 0x3e, 0x3f, 0x64, 0x63, 0x96, 0xbe,
  0xd5, 0x41, 0x41, 0x3f, 0x10, 0x24, 0x8c, 0xc0, 0xd6, 0x4b, 0xc3, 0xbf,
  0x14, 0x18, 0x0c, 0x3d, 0x90, 0x04, 0x54, 0xbe, 0x49, 0xe8, 0x04, 0xbe,
  0xce, 0xba, 0x66, 0xbe, 0x04, 0xc5, 0x9b, 0xbe, 0x21, 0x17, 0x40, 0xc0,
  0x75, 0x8b, 0xc8, 0x3e, 0x3b, 0x78, 0x38, 0xbe, 0x60, 0xf1, 0xdd, 0xbf,
  0xae, 0x50, 0xa8, 0xbd, 0xcf, 0x34, 0x1f, 0x3f, 0x0f, 0x0e, 0x14, 0x3f,
  0x31, 0xf1, 0x89, 0x3b, 0xc9, 0x42, 0x62, 0x3d, 0xd4, 0x49, 0xb0, 0xbe,
  0x58, 0x46, 0x44, 0x3f, 0x22, 0x7c, 0xc5, 0xbf, 0xef, 0x11, 0x83, 0xbf,
  0xda, 0x6d, 0x57, 0xbf, 0xf0, 0xb4, 0xff, 0xbf, 0x33, 0x16, 0xb8, 0x3e,
  0x11, 0xcd, 0x9d, 0xbd, 0x72, 0x2a, 0x54, 0x3e, 0x70, 0xa8, 0x7b, 0xbe,
  0xe1, 0x45, 0x83, 0xbf, 0xb5, 0xde, 0xe1, 0xbe, 0x51, 0x18, 0xcb, 0x3f,
  0xd9, 0xb7, 0x3d, 0xbe, 0x9c, 0xaa, 0x93, 0x3e, 0xbd, 0xdf, 0x02, 0x3f,
  0xe3, 0x9e, 0x9d, 0x3e, 0x23, 0xcf, 0x4e, 0x3e, 0x7a, 0xf3, 0x3b, 0x3e,
  0xc9, 0xe3, 0xe1, 0xbe, 0x48, 0xf4, 0x0d, 0x3d, 0xd3, 0x10, 0x91, 0xbe,
  0xc2, 0x48, 0x25, 0xbe, 0x83, 0xe2, 0xcd, 0xbb, 0x44, 0x1a, 0xc1, 0x3b,
  0x41, 0xb1, 0x88, 0x3e, 0xe9, 0x80, 0xfe, 0xbc, 0x57, 0xa3, 0x7e, 0x3e,
  0xaa, 0x83, 0x40, 0xbe, 0x2f, 0x19, 0xbb, 0xbe, 0x64, 0x38, 0x37, 0xbc,
  0x36, 0x7a, 0x63, 0xbe, 0x50, 0x9e, 0xe7, 0xbe, 0xa4, 0x33, 0x29, 0xbf,
  0x8a, 0x0a, 0xad, 0xbe, 0x5e, 0xae, 0xc6, 0xbf, 0x8f, 0x2e, 0x76, 0x3f,
  0xf3, 0x2e, 0x87, 0x3f, 0xcc, 0x95, 0x75, 0xbd, 0xbd, 0xa2, 0xba, 0xbd,
  0x4d, 0xd3, 0x94, 0xbe, 0x41, 0x3c, 0x19, 0xbe, 0xb3, 0xc7, 0x21, 0xc0,
  0x6e, 0x31, 0x3a, 0xbe, 0x15, 0x09, 0xc9, 0xbf, 0xc4, 0xf2, 0x67, 0xbf,
  0x98, 0x3e, 0x19, 0xbe, 0xcc, 0x7f, 0x04, 0x3f, 0xa2, 0xb0, 0xdb, 0x3e,
  0x2b, 0x94, 0x9c, 0x3f, 0x47, 0x57, 0xac, 0xbe, 0x42, 0x77, 0x86, 0xc0,
  0x9d, 0x2f, 0xcc, 0xbf, 0xfe, 0x8f, 0x24, 0xbf, 0xdd, 0x7b, 0xe8, 0x3e,
  0xf3, 0x7d, 0xb7, 0xbd, 0x55, 0x87, 0x81, 0xbe, 0x79, 0x12, 0x53, 0xbe,
  0x64, 0x17, 0x8f, 0xbf, 0x1f, 0xc8, 0xeb, 0xbd, 0xb1, 0x37, 0xf2, 0x3e,
  0x29, 0x10, 0xae, 0xc0, 0xc7, 0xa8, 0xab, 0xbd, 0x7f, 0x6b, 0x55, 0xbf,
  0xb6, 0xcf, 0x24, 0xbf, 0x20, 0x55, 0x8e, 0xbe, 0x79, 0x26, 0x83, 0x3e,
  0xbe, 0xd4, 0x34, 0xbf, 0x84, 0x39, 0xaf, 0xbe, 0x99, 0x40, 0x85, 0xbe,
  0x1e, 0xc3, 0xc3, 0xbc, 0xf6, 0xc2, 0x43, 0xbb, 0x19, 0xcd, 0x05, 0xbf,
  0xaf, 0x87, 0x6c, 0xbe, 0x32, 0x81, 0x84, 0xbe, 0xb5, 0x8d, 0x54, 0x3e,
  0x52, 0x70, 0x82, 0xbe, 0x4a, 0xcf, 0x95, 0xbe, 0x62, 0xa1, 0x8c, 0x3e,
  0xe3, 0xb1, 0x25, 0x3e, 0xc0, 0xbb, 0xe4, 0xbc, 0xa9, 0x15, 0xd2, 0xbd,
  0xad, 0xc5, 0x8f, 0xbe, 0x59, 0x2b, 0xb6, 0x3d, 0xd7, 0xa8, 0x2b, 0xbe,
  0x38, 0x34, 0xc9, 0x3c, 0x61, 0xcd, 0xb5, 0x3e, 0xca, 0xe8, 0xab, 0xbc,
  0xf1, 0xc8, 0xd7, 0xbe, 0x40, 0xeb, 0xbb, 0xbd, 0xd5, 0x88, 0x6a, 0xbf,
  0x3f, 0x27, 0xbc, 0xbd, 0x7e, 0x85, 0x23, 0x3e, 0x8a, 0x90, 0x29, 0xbe,
  0x28, 0x7d, 0x15, 0xbd, 0x0e, 0x15, 0x13, 0x3e, 0x03, 0x30, 0x8f, 0xbe,
  0x1d, 0xce, 0xb1, 0xbd, 0xa2, 0xfd, 0xcc, 0xbf, 0x75, 0x15, 0xc4, 0xbf,
  0x06, 0x82, 0x45, 0xbf, 0xa9, 0x34, 0x08, 0x3f, 0x43, 0x0c, 0x17, 0x3f,
  0x6e, 0xd4, 0x21, 0x3e, 0x45, 0xc2, 0xa4, 0xbf, 0x68, 0xdf, 0x86, 0xbe,
  0x06, 0xaf, 0x35, 0xc0, 0xb1, 0x4f, 0x26, 0x3e, 0x7c, 0xd3, 0xad, 0xbf,
  0x8a, 0x2c, 0xd2, 0xbe, 0xdd, 0x69, 0x31, 0xbd, 0x7e, 0x19, 0xc6, 0x3e,
  0xe1, 0xe2, 0xa7, 0xc0, 0x6d, 0xb8, 0x80, 0xbf, 0x61, 0x64, 0xaf, 0x3e,
  0xbe, 0xb3, 0x97, 0xbe, 0x1d, 0x20, 0x4a, 0x3f, 0xee, 0xe4, 0x6f, 0xbf,
  0x01, 0x85, 0xc5, 0x3e, 0x73, 0xe7, 0xb9, 0xbf, 0x1b, 0x53, 0xad, 0xbf,
  0xba, 0x09, 0xc4, 0xbe, 0x9f, 0x39, 0xb5, 0x3e, 0x71, 0x49, 0x39, 0xbe,
  0xee, 0xe2, 0x13, 0xbf, 0xff, 0x88, 0x8a, 0xbf, 0x46, 0x65, 0x91, 0xbe,
  0xb7, 0xb9, 0x17, 0x3e, 0x24, 0x78, 0xc7, 0x3e, 0xe8, 0xbd, 0x1d, 0xc0,
  0xa0, 0x8e, 0x54, 0xbf, 0xab, 0x9a, 0x5b, 0x3f, 0x62, 0x4c, 0x01, 0x3e,
  0x58, 0x2f, 0x58, 0x3e, 0x49, 0x96, 0x61, 0x3f, 0x7a, 0xa2, 0xe6, 0xbe,
  0x96, 0x28, 0x9b, 0xbe, 0x39, 0xa7, 0x27, 0xbe, 0xee, 0xc1, 0x8a, 0xbf,
  0xc9, 0xed, 0x85, 0xbd, 0x0a, 0xd5, 0x11, 0xbf, 0xf8, 0x55, 0x37, 0x3f,
  0x2b, 0x87, 0x98, 0xbd, 0x1c, 0xf9, 0x14, 0xc0, 0x0e, 0x04, 0x9e, 0xbf,
  0xdf, 0x82, 0x3f, 0xbe, 0x81, 0x6d, 0x32, 0xbe, 0x24, 0x57, 0xee, 0x3d,
  0xd0, 0x45, 0x91, 0xbe, 0x4f, 0xa6, 0x9e, 0xbd, 0xb4, 0xb4, 0xc4, 0xbe,
  0x59, 0x35, 0xc5, 0xbd, 0x84, 0xca, 0xe5, 0x3d, 0x90, 0x52, 0x78, 0xbd,
  0x24, 0x0c, 0x05, 0x3b, 0xf0, 0xf6, 0x39, 0xbd, 0x1b, 0x1a, 0x2f, 0x3e,
  0x15, 0x48, 0x82, 0xbe, 0x32, 0xd2, 0x3b, 0x3e, 0xe9, 0x8b, 0x3f, 0xbe,
  0x61, 0x01, 0x66, 0xbe, 0x8d, 0xf9, 0xda, 0x3e, 0xd2, 0xd0, 0xbc, 0xbe,
  0x1f, 0xd0, 0x0d, 0xbe, 0xe5, 0x4a, 0xa3, 0x3d, 0xb5, 0x31, 0xb9, 0xbb,
  0x6d, 0x28, 0x93, 0xbe, 0xf5, 0x3a, 0x00, 0xbe, 0x4b, 0x0b, 0x6d, 0xbe,
  0xaf, 0x51, 0x9b, 0x3e, 0xb0, 0xf3, 0x8b, 0x3e, 0xcd, 0xd6, 0x26, 0xbc,
  0xf6, 0x15, 0xec, 0xbd, 0xe2, 0x2b, 0x24, 0xbe, 0xb2, 0x36, 0xa7, 0xbe,
  0x06, 0x3b, 0x99, 0xbe, 0x44, 0x48, 0xad, 0xbd, 0x34, 0xc9, 0x87, 0x3f,
  0x4d, 0x85, 0xc2, 0xbf, 0x5c, 0x48, 0xe4, 0x3e, 0x2c, 0x1f, 0x53, 0x3f,
  0x75, 0xfb, 0x6c, 0xbf, 0x6e, 0xf5, 0x81, 0x3f, 0x47, 0xb1, 0x76, 0xbd,
  0xcd, 0x51, 0xb6, 0xc0, 0xa8, 0x15, 0x2b, 0xbe, 0x24, 0x5c, 0x09, 0xc0,
  0xcc, 0xac, 0x01, 0xbd, 0xd2, 0x64, 0x74, 0x3f, 0xa7, 0x1b, 0x17, 0xc0,
  0xe0, 0x82, 0x89, 0xbe, 0xd0, 0x3a, 0x07, 0x3f, 0xca, 0x3e, 0xbe, 0xbe,
  0x73, 0xcd, 0xde, 0xbd, 0x6e, 0x94, 0x26, 0xbf, 0x40, 0x24, 0xd6, 0x3e,
  0x67, 0x4a, 0xcb, 0xbd, 0xd9, 0x3c, 0xed, 0xbd, 0x8a, 0x08, 0x29, 0xbe,
  0x4a, 0xad, 0xc3, 0xbd, 0xc4, 0x3f, 0x1a, 0x3e, 0x51, 0xa2, 0xdb, 0x3e,
  0x78, 0x37, 0x32, 0x3d, 0xd7, 0x62, 0x06, 0x3e, 0xc4, 0x64, 0x8e, 0xbd,
  0x65, 0xe1, 0x99, 0x3e, 0x4e, 0x89, 0xed, 0xbd, 0x3f, 0xb2, 0xd4, 0xbd,
  0xee, 0x44, 0xbb, 0x3d, 0x67, 0x9e, 0xa7, 0xbc, 0x8f, 0x3a, 0x9b, 0xbd,
  0xe2, 0xe5, 0x5e, 0xbe, 0x89, 0xdd, 0x16, 0x3e, 0x11, 0x6d, 0x11, 0xc0,
  0x7f, 0xce, 0xf1, 0xbf, 0xb1, 0x8b, 0x06, 0xbe, 0x24, 0x88, 0x13, 0xbf,
  0x86, 0xc8, 0x7b, 0x3e, 0x0a, 0x6e, 0x00, 0xbf, 0xff, 0xb6, 0x06, 0x3e,
  0x43, 0x44, 0x0b, 0xbf, 0x88, 0x83, 0x14, 0xbf, 0x65, 0x71, 0x53, 0xbe,
  0xb3, 0x8d, 0xd7, 0x3e, 0xd9, 0xc4, 0x63, 0x3f, 0x51, 0x89, 0xe6, 0xbe,
  0xbc, 0xb9, 0x9c, 0xbe, 0x40, 0xcf, 0x8e, 0x3e, 0x70, 0xee, 0x67, 0xbd,
  0x17, 0x04, 0x30, 0x3e, 0xb8, 0x9e, 0xb4, 0xbe, 0x93, 0xde, 0x2d, 0xbe,
  0x9d, 0x16, 0xb7, 0xbe, 0xd0, 0xe1, 0xb2, 0xbc, 0xf1, 0xee, 0x5f, 0xbc,
  0x3e, 0xf2, 0x40, 0x3e, 0xe4, 0x15, 0x8c, 0x3d, 0xe7, 0x6d, 0x54, 0xbe,
  0xa2, 0x15, 0x79, 0x3e, 0x90, 0x69, 0xaf, 0x3d, 0x80, 0x7d, 0x1e, 0x3d,
  0xf6, 0xb8, 0x1b, 0x3d, 0x01, 0x2e, 0x03, 0xbf, 0x42, 0x2e, 0x55, 0xbf,
  0x60, 0x93, 0xfc, 0xbd, 0x03, 0x8d, 0xa4, 0x3d, 0x38, 0x8f, 0xd0, 0x3d,
  0x1e, 0x19, 0x0f, 0xbe, 0x79, 0xdd, 0x0f, 0x3f, 0x15, 0x36, 0xa5, 0x3d,
  0x18, 0x8d, 0x23, 0xc0, 0x12, 0xbf, 0xc8, 0xbe, 0xd5, 0x28, 0x04, 0x3f,
  0x60, 0x84, 0xa5, 0x3d, 0x9a, 0xb8, 0x40, 0xbd, 0x8c, 0x1b, 0xc3, 0x3e,
  0x4d, 0xd2, 0x45, 0xc0, 0x07, 0x94, 0x9e, 0xc0, 0x9b, 0x0e, 0x9a, 0xbf,
  0x54, 0xb4, 0xa1, 0xc0, 0x19, 0x3f, 0xb9, 0xc0, 0xfb, 0x1c, 0xc9, 0x3e,
  0xc1, 0xa7, 0x23, 0xbd, 0x9f, 0xd5, 0x37, 0xbd, 0x20, 0xf0, 0x16, 0xc0,
  0x8d, 0x36, 0x17, 0x3f, 0xc4, 0x4a, 0x49, 0xc0, 0xa2, 0xa2, 0x43, 0x3e,
  0xea, 0xc2, 0xb8, 0x3f, 0xaf, 0xfe, 0xac, 0x3e, 0x20, 0xe8, 0xc2, 0x3c,
  0xa1, 0x10, 0xec, 0xbf, 0x57, 0x10, 0x02, 0x40, 0xa2, 0x7d, 0x73, 0xc0,
  0x00, 0xd7, 0x0e, 0x3f, 0x81, 0x36, 0x8b, 0xbe, 0x21, 0x0c, 0x62, 0xc0,
  0x01, 0x0d, 0xad, 0x3e, 0xaf, 0xdc, 0x96, 0xbf, 0x59, 0x68, 0x06, 0xbe,
  0x76, 0xaa, 0x26, 0x3f, 0x00, 0xce, 0x62, 0xbe, 0x61, 0xa7, 0x83, 0xbf,
  0x66, 0x2c, 0x67, 0xbc, 0xd0, 0x76, 0xff, 0xbe, 0x0f, 0xea, 0x9d, 0x3d,
  0xf6, 0x3a, 0x85, 0xbe, 0x3f, 0x97, 0x05, 0xbf, 0x64, 0xc3, 0x4d, 0x3f,
  0x40, 0xe6, 0x30, 0x3b, 0x9b, 0x4c, 0xf7, 0xbf, 0x71, 0x42, 0x29, 0xbf,
  0x3a, 0x73, 0x8f, 0x3e, 0x40, 0x11, 0xe7, 0xbe, 0x4d, 0xd6, 0x4e, 0x3f,
  0xab, 0x6f, 0x04, 0xbf, 0x11, 0xca, 0x02, 0xc0, 0x7d, 0x3d, 0x53, 0x3e,
  0x46, 0x85, 0x0b, 0xbf, 0xe8, 0xdf, 0x3c, 0x3e, 0x6d, 0x9e, 0xf2, 0x3e,
  0x38, 0xaf, 0xab, 0xbe, 0xf4, 0x81, 0x94, 0xbc, 0x01, 0x7d, 0xbe, 0xbd,
  0xe7, 0xa1, 0xc9, 0xbf, 0x45, 0xee, 0xcc, 0xbf, 0xd0, 0xb7, 0x16, 0xbf,
  0x1f, 0x39, 0xe7, 0x3d, 0xad, 0xba, 0x13, 0xbf, 0x73, 0x79, 0xd9, 0x3e,
  0x05, 0xc8, 0x26, 0xbf, 0x17, 0x82, 0x20, 0xbe, 0xce, 0x38, 0x96, 0xbf,
  0x35, 0x17, 0xd8, 0xbe, 0xef, 0x0b, 0x5d, 0xbf, 0x5a, 0x54, 0x95, 0x3d,
  0x4d, 0x13, 0x5a, 0xc0, 0x3e, 0xb4, 0x08, 0x3f, 0x0e, 0xe0, 0x59, 0x3e,
  0xbf, 0x8a, 0xb5, 0x3e, 0x15, 0x6f, 0xbf, 0xc0, 0xd0, 0x31, 0x3b, 0x3f,
  0x42, 0x24, 0x22, 0xbf, 0x8b, 0x47, 0x11, 0x3f, 0x88, 0xeb, 0x5e, 0xbf,
  0x86, 0x78, 0x1d, 0x3e, 0x6f, 0x02, 0x0a, 0x3f, 0xae, 0xd6, 0x8b, 0x3c,
  0x9a, 0xde, 0xd3, 0x3d, 0x46, 0x8f, 0xdc, 0x3d, 0x89, 0x60, 0x95, 0xbf,
  0x85, 0x39, 0x88, 0x3e, 0x78, 0xc8, 0x29, 0x3c, 0x56, 0x1e, 0x10, 0x3d,
  0x0c, 0xc2, 0x07, 0x3e, 0xe9, 0x67, 0x26, 0xbf, 0xb6, 0x13, 0x57, 0xbf,
  0x4c, 0x20, 0x24, 0x3f, 0x78, 0xfe, 0x16, 0x3d, 0x5c, 0xca, 0xa9, 0x3e,
  0x54, 0x39, 0xa4, 0x3e, 0x31, 0x2d, 0xa5, 0x3e, 0xd6, 0x34, 0x4a, 0xbf,
  0x7c, 0x06, 0xd0, 0x3d, 0xe7, 0x73, 0x6e, 0xbf, 0x60, 0xa4, 0x89, 0x3e,
  0x74, 0x32, 0xa2, 0x3e, 0x0a, 0xc2, 0x8b, 0xbe, 0xd9, 0x39, 0x68, 0x3f,
  0x35, 0x78, 0xa0, 0x3e, 0x5f, 0xfa, 0x71, 0xbe, 0x97, 0xae, 0x5d, 0xbf,
  0xa2, 0x2d, 0x74, 0x3c, 0x64, 0x6f, 0x51, 0xbf, 0xd7, 0x54, 0xab, 0xbf,
  0x9c, 0xc9, 0x54, 0xbf, 0xbd, 0x03, 0x8b, 0xbd, 0x5c, 0x0e, 0xdc, 0x3e,
  0x88, 0xf2, 0x4c, 0x3f, 0xcb, 0x48, 0x2c, 0xbe, 0x56, 0x3e, 0xbb, 0xbf,
  0x2f, 0x98, 0x9c, 0x3e, 0x31, 0x20, 0x12, 0xc0, 0xee, 0x38, 0x32, 0xbd,
  0xce, 0x86, 0x8a, 0xbf, 0x6c, 0xc3, 0xea, 0x3e, 0x71, 0x37, 0x9b, 0xbe,
  0xae, 0xc9, 0x5a, 0xc0, 0x49, 0x00, 0xdd, 0xc0, 0xc3, 0x3f, 0xad, 0x3e,
  0x26, 0x20, 0xf3, 0x3e, 0xa6, 0x16, 0x71, 0xbf, 0xe3, 0x64, 0x7d, 0xbf,
  0x42, 0x0c, 0x10, 0x3d, 0xdb, 0xb0, 0x3d, 0xbe, 0x1f, 0xb4, 0x86, 0xbe,
  0x69, 0x7f, 0x73, 0x3e, 0x8d, 0x25, 0xc2, 0xbd, 0x67, 0x12, 0x4b, 0xbf,
  0x4d, 0x9c, 0x01, 0x3c, 0x6a, 0x5b, 0x83, 0xbe, 0x73, 0xc3, 0x9a, 0x3e,
  0x0c, 0x0e, 0x44, 0xbd, 0xb2, 0xf1, 0x11, 0xbe, 0xf7, 0x0a, 0xee, 0xbf,
  0xf2, 0x8b, 0xc4, 0xbf, 0x92, 0x6f, 0x45, 0xbf, 0x2e, 0xda, 0x97, 0x3f,
  0x31, 0xf8, 0x7d, 0xbf, 0x48, 0x06, 0x43, 0x3d, 0x74, 0x35, 0x98, 0x3f,
  0xe6, 0x67, 0x46, 0xbe, 0xcb, 0x29, 0x4d, 0x3f, 0x82, 0x52, 0x80, 0x3e,
  0x54, 0x4b, 0x8e, 0x3e, 0x83, 0x74, 0x05, 0xbe, 0x40, 0x37, 0x75, 0x3d,
  0x60, 0xbb, 0xa7, 0x3e, 0x48, 0x78, 0xa7, 0xbc, 0xa3, 0xde, 0xa9, 0xbf,
  0x8b, 0x70, 0x5e, 0xbf, 0x02, 0xfd, 0xff, 0xff, 0x04, 0x00, 0x00, 0x00,
  0x80, 0x01, 0x00, 0x00, 0xc1, 0x8e, 0x95, 0xbf, 0x86, 0xbd, 0x3e, 0x3f,
  0x89, 0x5c, 0x01, 0x3f, 0x7c, 0x43, 0x61, 0xbf, 0xf8, 0xf1, 0x6f, 0x3f,
  0xf4, 0x7b, 0xd0, 0x3e, 0x8f, 0x21, 0x39, 0x3f, 0x37, 0xf5, 0x2a, 0x3f,
  0x0b, 0xf0, 0x18, 0xbe, 0x92, 0x9c, 0xcd, 0xbf, 0x01, 0xc0, 0xa8, 0xbf,
  0x97, 0x40, 0x8b, 0x3e, 0x45, 0x32, 0x2c, 0x3f, 0x4d, 0x7f, 0xcf, 0x3f,
  0x7c, 0xc1, 0x05, 0x3e, 0xbc, 0x67, 0xb9, 0xbf, 0x14, 0x73, 0x36, 0x3f,
  0xe9, 0x0c, 0x9a, 0xbf, 0x06, 0x66, 0xac, 0xbe, 0x63, 0x32, 0xab, 0xc0,
  0x93, 0x8f, 0x0a, 0xbf, 0x37, 0x19, 0x18, 0x3b, 0x61, 0x31, 0x86, 0x3f,
  0x20, 0x48, 0x0f, 0xbf, 0x88, 0x08, 0x86, 0x3f, 0x6a, 0xd0, 0x8e, 0xbf,
  0x26, 0x54, 0xd9, 0x3e, 0x78, 0xeb, 0x27, 0xc0, 0xfc, 0x83, 0xec, 0xbe,
  0xac, 0x9f, 0xf9, 0xbe, 0x06, 0xfa, 0x51, 0x3f, 0x93, 0x6f, 0x96, 0xbe,
  0x51, 0x44, 0x03, 0xbf, 0x79, 0xb7, 0xa3, 0xbf, 0xd0, 0xe0, 0xc9, 0xbf,
  0xc2, 0x7b, 0xcc, 0xbe, 0xd1, 0x71, 0xdc, 0x3d, 0x4e, 0x06, 0xad, 0xbb,
  0xdc, 0x0c, 0xf5, 0x3e, 0x33, 0x8f, 0x27, 0xbf, 0x96, 0x60, 0x02, 0x3f,
  0xf6, 0xf1, 0x0a, 0x3f, 0x4a, 0x9a, 0x3c, 0x3e, 0x90, 0x5b, 0x5c, 0xbe,
  0x35, 0xa2, 0x28, 0x3f, 0xea, 0x45, 0x13, 0xbf, 0x49, 0xfe, 0x80, 0x3f,
  0xe4, 0x7e, 0x53, 0xbf, 0x22, 0x3c, 0x0c, 0xc0, 0x78, 0x9c, 0xd0, 0x3e,
  0x29, 0xae, 0xf8, 0xbe, 0xcf, 0x13, 0x1d, 0xbe, 0xf9, 0xa0, 0xb6, 0xbf,
  0x59, 0x18, 0x3d, 0xc0, 0x81, 0x14, 0x81, 0xbe, 0x65, 0xb4, 0xa8, 0xbf,
  0x82, 0x51, 0x24, 0xc0, 0xc6, 0x5a, 0xc6, 0x3e, 0x72, 0x29, 0xae, 0xbf,
  0x01, 0x3d, 0xf2, 0xbc, 0x33, 0xc7, 0xdf, 0x3d, 0x0e, 0xf5, 0xc4, 0x3d,
  0xfb, 0x8b, 0x06, 0xbf, 0xbe, 0xc8, 0x14, 0xbf, 0xad, 0xab, 0x9a, 0xbe,
  0x79, 0x83, 0x27, 0xbe, 0xff, 0x83, 0x68, 0xc0, 0xe3, 0x0b, 0x97, 0xc0,
  0x5b, 0x12, 0x51, 0x3e, 0x11, 0x09, 0xdf, 0xbe, 0x72, 0x85, 0xe1, 0xbc,
  0x06, 0xd8, 0x48, 0x3f, 0x5e, 0x9a, 0x04, 0x3f, 0x40, 0x67, 0x95, 0x3f,
  0xc5, 0x22, 0x0d, 0x3f, 0x85, 0x8e, 0xb0, 0xbf, 0x4a, 0x65, 0xa4, 0xbd,
  0x8f, 0x50, 0xc9, 0xbf, 0x76, 0x0b, 0x95, 0x3d, 0x41, 0x68, 0xef, 0x3c,
  0x00, 0x6d, 0x47, 0xbe, 0x4e, 0x3a, 0x86, 0xbe, 0x54, 0xf7, 0x6d, 0xbe,
  0xa1, 0x21, 0xc0, 0xbe, 0x13, 0xe1, 0x2b, 0xbf, 0xfb, 0xa4, 0x96, 0xbf,
  0x9c, 0x7c, 0xf0, 0x3d, 0x8f, 0x6b, 0xdc, 0xbe, 0xc1, 0x88, 0x21, 0x3f,
  0x14, 0x71, 0xfd, 0xbf, 0xb2, 0xa4, 0xf0, 0xbd, 0x46, 0x9a, 0x89, 0x3d,
  0x29, 0xdc, 0xd5, 0xbf, 0xfb, 0x5d, 0xfd, 0x3e, 0x3c, 0xfe, 0xfe, 0x3d,
  0xd5, 0x72, 0x8e, 0xbf, 0x8e, 0xfe, 0xff, 0xff, 0x04, 0x00, 0x00, 0x00,
  0x48, 0x00, 0x00, 0x00, 0x25, 0x2d, 0xbd, 0x3f, 0xe7, 0x56, 0x1a, 0xbf,
  0xc9, 0xcc, 0xcb, 0xbf, 0x21, 0xe3, 0xd9, 0x3d, 0x8d, 0x54, 0x52, 0xbf,
  0x34, 0x1d, 0x30, 0xbf, 0xe7, 0xcb, 0x98, 0x3e, 0x42, 0x04, 0x62, 0xbf,
  0xdc, 0x08, 0x04, 0x3e, 0xcc, 0xf0, 0xc3, 0x3f, 0xe4, 0xf7, 0x96, 0xbe,
  0x11, 0x24, 0xe2, 0xbf, 0x84, 0xaf, 0xc6, 0xbe, 0x9b, 0xcf, 0x35, 0xbf,
  0xd1, 0xeb, 0xfc, 0x3f, 0xcf, 0xc1, 0x83, 0xbf, 0x95, 0xb2, 0x06, 0xbe,
  0x63, 0x85, 0x02, 0xc0, 0xe2, 0xfe, 0xff, 0xff, 0x04, 0x00, 0x00, 0x00,
  0x18, 0x00, 0x00, 0x00, 0x59, 0x50, 0xa8, 0xbd, 0x78, 0xc7, 0x66, 0xbf,
  0x9b, 0x8a, 0x15, 0xbf, 0x34, 0xc1, 0x71, 0xbf, 0xf8, 0xac, 0x51, 0xbf,
  0xce, 0x54, 0x19, 0x3f, 0x06, 0xff, 0xff, 0xff, 0x04, 0x00, 0x00, 0x00,
  0x14, 0x00, 0x00, 0x00, 0xb4, 0xc9, 0xb7, 0x3f, 0xf2, 0x6c, 0xb7, 0x3f,
  0xcd, 0x82, 0xb7, 0x3f, 0xca, 0xfa, 0xb7, 0x3f, 0x3f, 0x53, 0xb7, 0x3f,
  0x26, 0xff, 0xff, 0xff, 0x04, 0x00, 0x00, 0x00, 0x40, 0x00, 0x00, 0x00,
  0xa8, 0xae, 0xb6, 0xbf, 0x6c, 0xed, 0x81, 0x3d, 0xf4, 0x8c, 0x06, 0xbf,
  0x1a, 0x51, 0x5b, 0x3f, 0xf5, 0xf4, 0xd7, 0xbe, 0xe3, 0xc5, 0x06, 0xbf,
  0xd6, 0xf2, 0x80, 0x3e, 0x49, 0x5c, 0x13, 0xbf, 0x1f, 0xac, 0xb3, 0xbe,
  0x4c, 0xa9, 0x4e, 0x3f, 0x76, 0x6b, 0x8c, 0xbc, 0xe5, 0x22, 0xc4, 0x3e,
  0x48, 0xe2, 0x61, 0x3f, 0xe0, 0xf7, 0x84, 0x3e, 0x3a, 0x7d, 0xa0, 0xbe,
  0x27, 0xb9, 0x48, 0xbe, 0x72, 0xff, 0xff, 0xff, 0x04, 0x00, 0x00, 0x00,
  0x80, 0x00, 0x00, 0x00, 0xa3, 0x6b, 0x3c, 0xbf, 0x64, 0x14, 0xb3, 0xbf,
  0x6d, 0x07, 0xe2, 0xbd, 0x2f, 0x7f, 0xa3, 0x3f, 0xcf, 0xf0, 0xc5, 0x3d,
  0xca, 0x23, 0x05, 0x3e, 0x97, 0x4f, 0x32, 0x3f, 0xf1, 0x12, 0x60, 0xbe,
  0x2f, 0xcc, 0x6f, 0xbf, 0xa4, 0xdb, 0x55, 0xbe, 0x98, 0x43, 0xb0, 0x3e,
  0x97, 0xdb, 0x73, 0xbf, 0x2f, 0x93, 0xb1, 0xbe, 0x35, 0x6f, 0x7a, 0x3f,
  0x63, 0x4a, 0x3e, 0x3e, 0x61, 0x08, 0xcb, 0xbe, 0xee, 0x77, 0x54, 0xbf,
  0x55, 0x6c, 0xa2, 0xbf, 0x04, 0x87, 0x14, 0xbe, 0x54, 0x19, 0x47, 0xbf,
  0x7f, 0xbd, 0xab, 0xbe, 0x5a, 0xc8, 0x70, 0xbe, 0x28, 0x7e, 0xae, 0x3c,
  0x0d, 0xdb, 0x1b, 0x3f, 0x62, 0xbc, 0x9c, 0x3c, 0x7f, 0xab, 0x7f, 0x3f,
  0x98, 0x9e, 0x76, 0x3f, 0x25, 0x1a, 0x03, 0xbf, 0xdd, 0x9c, 0x23, 0xc0,
  0x66, 0x76, 0x2c, 0x3f, 0xe7, 0xf8, 0x9c, 0x3e, 0x16, 0xc0, 0x3a, 0xbf,
  0x00, 0x00, 0x06, 0x00, 0x08, 0x00, 0x04, 0x00, 0x06, 0x00, 0x00, 0x00,
  0x04, 0x00, 0x00, 0x00, 0x40, 0x00, 0x00, 0x00, 0x97, 0x45, 0xff, 0xbe,
  0x19, 0xc4, 0x46, 0x3e, 0x56, 0xf2, 0x55, 0xbf, 0xd5, 0x2b, 0xaf, 0x3d,
  0x68, 0x4c, 0x88, 0x3e, 0xae, 0xa4, 0x05, 0x3f, 0xa1, 0x19, 0x19, 0xbf,
  0xf7, 0x9e, 0x5e, 0xbf, 0x80, 0xba, 0x1c, 0xbc, 0x6d, 0x7a, 0x0f, 0x3f,
  0x7b, 0x59, 0xdd, 0xbd, 0x33, 0x1e, 0x0b, 0xbe, 0x73, 0x43, 0xad, 0xbe,
  0xba, 0x53, 0xc0, 0xbd, 0x70, 0x98, 0x96, 0x3e, 0x50, 0x24, 0x17, 0x3f,
  0x48, 0xf8, 0xff, 0xff, 0x4c, 0xf8, 0xff, 0xff, 0x0f, 0x00, 0x00, 0x00,
  0x4d, 0x4c, 0x49, 0x52, 0x20, 0x43, 0x6f, 0x6e, 0x76, 0x65, 0x72, 0x74,
  0x65, 0x64, 0x2e, 0x00, 0x01, 0x00, 0x00, 0x00, 0x14, 0x00, 0x00, 0x00,
  0x00, 0x00, 0x0e, 0x00, 0x18, 0x00, 0x14, 0x00, 0x10, 0x00, 0x0c, 0x00,
  0x08, 0x00, 0x04, 0x00, 0x0e, 0x00, 0x00, 0x00, 0x14, 0x00, 0x00, 0x00,
  0x1c, 0x00, 0x00, 0x00, 0x48, 0x01, 0x00, 0x00, 0x4c, 0x01, 0x00, 0x00,
  0x50, 0x01, 0x00, 0x00, 0x04, 0x00, 0x00, 0x00, 0x6d, 0x61, 0x69, 0x6e,
  0x00, 0x00, 0x00, 0x00, 0x05, 0x00, 0x00, 0x00, 0xf0, 0x00, 0x00, 0x00,
  0xa8, 0x00, 0x00, 0x00, 0x70, 0x00, 0x00, 0x00, 0x38, 0x00, 0x00, 0x00,
  0x04, 0x00, 0x00, 0x00, 0x32, 0xff, 0xff, 0xff, 0x10, 0x00, 0x00, 0x00,
  0x00, 0x00, 0x00, 0x08, 0x0c, 0x00, 0x00, 0x00, 0x10, 0x00, 0x00, 0x00,
  0xcc, 0xf8, 0xff, 0xff, 0x01, 0x00, 0x00, 0x00, 0x0f, 0x00, 0x00, 0x00,
  0x03, 0x00, 0x00, 0x00, 0x0e, 0x00, 0x00, 0x00, 0x0a, 0x00, 0x00, 0x00,
  0x04, 0x00, 0x00, 0x00, 0x62, 0xff, 0xff, 0xff, 0x10, 0x00, 0x00, 0x00,
  0x00, 0x00, 0x00, 0x08, 0x10, 0x00, 0x00, 0x00, 0x14, 0x00, 0x00, 0x00,
  0x52, 0xff, 0xff, 0xff, 0x00, 0x00, 0x00, 0x01, 0x01, 0x00, 0x00, 0x00,
  0x0e, 0x00, 0x00, 0x00, 0x03, 0x00, 0x00, 0x00, 0x0d, 0x00, 0x00, 0x00,
  0x09, 0x00, 0x00, 0x00, 0x03, 0x00, 0x00, 0x00, 0x96, 0xff, 0xff, 0xff,
  0x10, 0x00, 0x00, 0x00, 0x00, 0x00, 0x00, 0x08, 0x10, 0x00, 0x00, 0x00,
  0x14, 0x00, 0x00, 0x00, 0x86, 0xff, 0xff, 0xff, 0x00, 0x00, 0x00, 0x01,
  0x01, 0x00, 0x00, 0x00, 0x0d, 0x00, 0x00, 0x00, 0x03, 0x00, 0x00, 0x00,
  0x0c, 0x00, 0x00, 0x00, 0x08, 0x00, 0x00, 0x00, 0x02, 0x00, 0x00, 0x00,
  0xca, 0xff, 0xff, 0xff, 0x10, 0x00, 0x00, 0x00, 0x00, 0x00, 0x00, 0x08,
  0x10, 0x00, 0x00, 0x00, 0x14, 0x00, 0x00, 0x00, 0xba, 0xff, 0xff, 0xff,
  0x00, 0x00, 0x00, 0x01, 0x01, 0x00, 0x00, 0x00, 0x0c, 0x00, 0x00, 0x00,
  0x03, 0x00, 0x00, 0x00, 0x0b, 0x00, 0x00, 0x00, 0x07, 0x00, 0x00, 0x00,
  0x01, 0x00, 0x00, 0x00, 0x00, 0x00, 0x0e, 0x00, 0x16, 0x00, 0x00, 0x00,
  0x10, 0x00, 0x0c, 0x00, 0x0b, 0x00, 0x04, 0x00, 0x0e, 0x00, 0x00, 0x00,
  0x18, 0x00, 0x00, 0x00, 0x00, 0x00, 0x00, 0x08, 0x18, 0x00, 0x00, 0x00,
  0x1c, 0x00, 0x00, 0x00, 0x00, 0x00, 0x06, 0x00, 0x08, 0x00, 0x07, 0x00,
  0x06, 0x00, 0x00, 0x00, 0x00, 0x00, 0x00, 0x01, 0x01, 0x00, 0x00, 0x00,
  0x0b, 0x00, 0x00, 0x00, 0x03, 0x00, 0x00, 0x00, 0x00, 0x00, 0x00, 0x00,
  0x06, 0x00, 0x00, 0x00, 0x05, 0x00, 0x00, 0x00, 0x01, 0x00, 0x00, 0x00,
  0x0f, 0x00, 0x00, 0x00, 0x01, 0x00, 0x00, 0x00, 0x00, 0x00, 0x00, 0x00,
  0x10, 0x00, 0x00, 0x00, 0xf4, 0x05, 0x00, 0x00, 0x84, 0x05, 0x00, 0x00,
  0x14, 0x05, 0x00, 0x00, 0xbc, 0x04, 0x00, 0x00, 0x64, 0x04, 0x00, 0x00,
  0x10, 0x04, 0x00, 0x00, 0xc8, 0x03, 0x00, 0x00, 0x7c, 0x03, 0x00, 0x00,
  0x30, 0x03, 0x00, 0x00, 0xe4, 0x02, 0x00, 0x00, 0x98, 0x02, 0x00, 0x00,
  0x10, 0x02, 0x00, 0x00, 0x80, 0x01, 0x00, 0x00, 0xf0, 0x00, 0x00, 0x00,
  0x60, 0x00, 0x00, 0x00, 0x04, 0x00, 0x00, 0x00, 0x62, 0xfa, 0xff, 0xff,
  0x00, 0x00, 0x00, 0x01, 0x14, 0x00, 0x00, 0x00, 0x1c, 0x00, 0x00, 0x00,
  0x1c, 0x00, 0x00, 0x00, 0x10, 0x00, 0x00, 0x00, 0x34, 0x00, 0x00, 0x00,
  0x02, 0x00, 0x00, 0x00, 0xff, 0xff, 0xff, 0xff, 0x05, 0x00, 0x00, 0x00,
  0x4c, 0xfa, 0xff, 0xff, 0x19, 0x00, 0x00, 0x00, 0x53, 0x74, 0x61, 0x74,
  0x65, 0x66, 0x75, 0x6c, 0x50, 0x61, 0x72, 0x74, 0x69, 0x74, 0x69, 0x6f,
  0x6e, 0x65, 0x64, 0x43, 0x61, 0x6c, 0x6c, 0x3a, 0x30, 0x00, 0x00, 0x00,
  0x02, 0x00, 0x00, 0x00, 0x01, 0x00, 0x00, 0x00, 0x05, 0x00, 0x00, 0x00,
  0xba, 0xfa, 0xff, 0xff, 0x00, 0x00, 0x00, 0x01, 0x14, 0x00, 0x00, 0x00,
  0x1c, 0x00, 0x00, 0x00, 0x1c, 0x00, 0x00, 0x00, 0x0f, 0x00, 0x00, 0x00,
  0x68, 0x00, 0x00, 0x00, 0x02, 0x00, 0x00, 0x00, 0xff, 0xff, 0xff, 0xff,
  0x10, 0x00, 0x00, 0x00, 0xa4, 0xfa, 0xff, 0xff, 0x4c, 0x00, 0x00, 0x00,
  0x73, 0x65, 0x71, 0x75, 0x65, 0x6e, 0x74, 0x69, 0x61, 0x6c, 0x2f, 0x64,
  0x65, 0x6e, 0x73, 0x65, 0x5f, 0x33, 0x2f, 0x4d, 0x61, 0x74, 0x4d, 0x75,
  0x6c, 0x3b, 0x73, 0x65, 0x71, 0x75, 0x65, 0x6e, 0x74, 0x69, 0x61, 0x6c,
  0x2f, 0x64, 0x65, 0x6e, 0x73, 0x65, 0x5f, 0x33, 0x2f, 0x52, 0x65, 0x6c,
  0x75, 0x3b, 0x73, 0x65, 0x71, 0x75, 0x65, 0x6e, 0x74, 0x69, 0x61, 0x6c,
  0x2f, 0x64, 0x65, 0x6e, 0x73, 0x65, 0x5f, 0x33, 0x2f, 0x42, 0x69, 0x61,
  0x73, 0x41, 0x64, 0x64, 0x00, 0x00, 0x00, 0x00, 0x02, 0x00, 0x00, 0x00,
  0x01, 0x00, 0x00, 0x00, 0x10, 0x00, 0x00, 0x00, 0x46, 0xfb, 0xff, 0xff,
  0x00, 0x00, 0x00, 0x01, 0x14, 0x00, 0x00, 0x00, 0x1c, 0x00, 0x00, 0x00,
  0x1c, 0x00, 0x00, 0x00, 0x0e, 0x00, 0x00, 0x00, 0x68, 0x00, 0x00, 0x00,
  0x02, 0x00, 0x00, 0x00, 0xff, 0xff, 0xff, 0xff, 0x20, 0x00, 0x00, 0x00,
  0x30, 0xfb, 0xff, 0xff, 0x4c, 0x00, 0x00, 0x00, 0x73, 0x65, 0x71, 0x75,
  0x65, 0x6e, 0x74, 0x69, 0x61, 0x6c, 0x2f, 0x64, 0x65, 0x6e, 0x73, 0x65,
  0x5f, 0x32, 0x2f, 0x4d, 0x61, 0x74, 0x4d, 0x75, 0x6c, 0x3b, 0x73, 0x65,
  0x71, 0x75, 0x65, 0x6e, 0x74, 0x69, 0x61, 0x6c, 0x2f, 0x64, 0x65, 0x6e,
  0x73, 0x65, 0x5f, 0x32, 0x2f, 0x52, 0x65, 0x6c, 0x75, 0x3b, 0x73, 0x65,
  0x71, 0x75, 0x65, 0x6e, 0x74, 0x69, 0x61, 0x6c, 0x2f, 0x64, 0x65, 0x6e,
  0x73, 0x65, 0x5f, 0x32, 0x2f, 0x42, 0x69, 0x61, 0x73, 0x41, 0x64, 0x64,
  0x00, 0x00, 0x00, 0x00, 0x02, 0x00, 0x00, 0x00, 0x01, 0x00, 0x00, 0x00,
  0x20, 0x00, 0x00, 0x00, 0xd2, 0xfb, 0xff, 0xff, 0x00, 0x00, 0x00, 0x01,
  0x14, 0x00, 0x00, 0x00, 0x1c, 0x00, 0x00, 0x00, 0x1c, 0x00, 0x00, 0x00,
  0x0d, 0x00, 0x00, 0x00, 0x68, 0x00, 0x00, 0x00, 0x02, 0x00, 0x00, 0x00,
  0xff, 0xff, 0xff, 0xff, 0x10, 0x00, 0x00, 0x00, 0xbc, 0xfb, 0xff, 0xff,
  0x4c, 0x00, 0x00, 0x00, 0x73, 0x65, 0x71, 0x75, 0x65, 0x6e, 0x74, 0x69,
  0x61, 0x6c, 0x2f, 0x64, 0x65, 0x6e, 0x73, 0x65, 0x5f, 0x31, 0x2f, 0x4d,
  0x61, 0x74, 0x4d, 0x75, 0x6c, 0x3b, 0x73, 0x65, 0x71, 0x75, 0x65, 0x6e,
  0x74, 0x69, 0x61, 0x6c, 0x2f, 0x64, 0x65, 0x6e, 0x73, 0x65, 0x5f, 0x31,
  0x2f, 0x52, 0x65, 0x6c, 0x75, 0x3b, 0x73, 0x65, 0x71, 0x75, 0x65, 0x6e,
  0x74, 0x69, 0x61, 0x6c, 0x2f, 0x64, 0x65, 0x6e, 0x73, 0x65, 0x5f, 0x31,
  0x2f, 0x42, 0x69, 0x61, 0x73, 0x41, 0x64, 0x64, 0x00, 0x00, 0x00, 0x00,
  0x02, 0x00, 0x00, 0x00, 0x01, 0x00, 0x00, 0x00, 0x10, 0x00, 0x00, 0x00,
  0x5e, 0xfc, 0xff, 0xff, 0x00, 0x00, 0x00, 0x01, 0x14, 0x00, 0x00, 0x00,
  0x1c, 0x00, 0x00, 0x00, 0x1c, 0x00, 0x00, 0x00, 0x0c, 0x00, 0x00, 0x00,
  0x60, 0x00, 0x00, 0x00, 0x02, 0x00, 0x00, 0x00, 0xff, 0xff, 0xff, 0xff,
  0x06, 0x00, 0x00, 0x00, 0x48, 0xfc, 0xff, 0xff, 0x46, 0x00, 0x00, 0x00,
  0x73, 0x65, 0x71, 0x75, 0x65, 0x6e, 0x74, 0x69, 0x61, 0x6c, 0x2f, 0x64,
  0x65, 0x6e, 0x73, 0x65, 0x2f, 0x4d, 0x61, 0x74, 0x4d, 0x75, 0x6c, 0x3b,
  0x73, 0x65, 0x71, 0x75, 0x65, 0x6e, 0x74, 0x69, 0x61, 0x6c, 0x2f, 0x64,
  0x65, 0x6e, 0x73, 0x65, 0x2f, 0x52, 0x65, 0x6c, 0x75, 0x3b, 0x73, 0x65,
  0x71, 0x75, 0x65, 0x6e, 0x74, 0x69, 0x61, 0x6c, 0x2f, 0x64, 0x65, 0x6e,
  0x73, 0x65, 0x2f, 0x42, 0x69, 0x61, 0x73, 0x41, 0x64, 0x64, 0x00, 0x00,
  0x02, 0x00, 0x00, 0x00, 0x01, 0x00, 0x00, 0x00, 0x06, 0x00, 0x00, 0x00,
  0x4e, 0xfd, 0xff, 0xff, 0x00, 0x00, 0x00, 0x01, 0x10, 0x00, 0x00, 0x00,
  0x10, 0x00, 0x00, 0x00, 0x0b, 0x00, 0x00, 0x00, 0x28, 0x00, 0x00, 0x00,
  0xbc, 0xfc, 0xff, 0xff, 0x19, 0x00, 0x00, 0x00, 0x73, 0x65, 0x71, 0x75,
  0x65, 0x6e, 0x74, 0x69, 0x61, 0x6c, 0x2f, 0x64, 0x65, 0x6e, 0x73, 0x65,
  0x5f, 0x34, 0x2f, 0x4d, 0x61, 0x74, 0x4d, 0x75, 0x6c, 0x00, 0x00, 0x00,
  0x02, 0x00, 0x00, 0x00, 0x05, 0x00, 0x00, 0x00, 0x10, 0x00, 0x00, 0x00,
  0x96, 0xfd, 0xff, 0xff, 0x00, 0x00, 0x00, 0x01, 0x10, 0x00, 0x00, 0x00,
  0x10, 0x00, 0x00, 0x00, 0x0a, 0x00, 0x00, 0x00, 0x28, 0x00, 0x00, 0x00,
  0x04, 0xfd, 0xff, 0xff, 0x19, 0x00, 0x00, 0x00, 0x73, 0x65, 0x71, 0x75,
  0x65, 0x6e, 0x74, 0x69, 0x61, 0x6c, 0x2f, 0x64, 0x65, 0x6e, 0x73, 0x65,
  0x5f, 0x33, 0x2f, 0x4d, 0x61, 0x74, 0x4d, 0x75, 0x6c, 0x00, 0x00, 0x00,
  0x02, 0x00, 0x00, 0x00, 0x10, 0x00, 0x00, 0x00, 0x20, 0x00, 0x00, 0x00,
  0xde, 0xfd, 0xff, 0xff, 0x00, 0x00, 0x00, 0x01, 0x10, 0x00, 0x00, 0x00,
  0x10, 0x00, 0x00, 0x00, 0x09, 0x00, 0x00, 0x00, 0x28, 0x00, 0x00, 0x00,
  0x4c, 0xfd, 0xff, 0xff, 0x19, 0x00, 0x00, 0x00, 0x73, 0x65, 0x71, 0x75,
  0x65, 0x6e, 0x74, 0x69, 0x61, 0x6c, 0x2f, 0x64, 0x65, 0x6e, 0x73, 0x65,
  0x5f, 0x32, 0x2f, 0x4d, 0x61, 0x74, 0x4d, 0x75, 0x6c, 0x00, 0x00, 0x00,
  0x02, 0x00, 0x00, 0x00, 0x20, 0x00, 0x00, 0x00, 0x10, 0x00, 0x00, 0x00,
  0x26, 0xfe, 0xff, 0xff, 0x00, 0x00, 0x00, 0x01, 0x10, 0x00, 0x00, 0x00,
  0x10, 0x00, 0x00, 0x00, 0x08, 0x00, 0x00, 0x00, 0x28, 0x00, 0x00, 0x00,
  0x94, 0xfd, 0xff, 0xff, 0x19, 0x00, 0x00, 0x00, 0x73, 0x65, 0x71, 0x75,
  0x65, 0x6e, 0x74, 0x69, 0x61, 0x6c, 0x2f, 0x64, 0x65, 0x6e, 0x73, 0x65,
  0x5f, 0x31, 0x2f, 0x4d, 0x61, 0x74, 0x4d, 0x75, 0x6c, 0x00, 0x00, 0x00,
  0x02, 0x00, 0x00, 0x00, 0x10, 0x00, 0x00, 0x00, 0x06, 0x00, 0x00, 0x00,
  0x6e, 0xfe, 0xff, 0xff, 0x00, 0x00, 0x00, 0x01, 0x10, 0x00, 0x00, 0x00,
  0x10, 0x00, 0x00, 0x00, 0x07, 0x00, 0x00, 0x00, 0x24, 0x00, 0x00, 0x00,
  0xdc, 0xfd, 0xff, 0xff, 0x17, 0x00, 0x00, 0x00, 0x73, 0x65, 0x71, 0x75,
  0x65, 0x6e, 0x74, 0x69, 0x61, 0x6c, 0x2f, 0x64, 0x65, 0x6e, 0x73, 0x65,
  0x2f, 0x4d, 0x61, 0x74, 0x4d, 0x75, 0x6c, 0x00, 0x02, 0x00, 0x00, 0x00,
  0x06, 0x00, 0x00, 0x00, 0x03, 0x00, 0x00, 0x00, 0xb2, 0xfe, 0xff, 0xff,
  0x00, 0x00, 0x00, 0x01, 0x10, 0x00, 0x00, 0x00, 0x10, 0x00, 0x00, 0x00,
  0x06, 0x00, 0x00, 0x00, 0x34, 0x00, 0x00, 0x00, 0x20, 0xfe, 0xff, 0xff,
  0x27, 0x00, 0x00, 0x00, 0x73, 0x65, 0x71, 0x75, 0x65, 0x6e, 0x74, 0x69,
  0x61, 0x6c, 0x2f, 0x64, 0x65, 0x6e, 0x73, 0x65, 0x2f, 0x42, 0x69, 0x61,
  0x73, 0x41, 0x64, 0x64, 0x2f, 0x52, 0x65, 0x61, 0x64, 0x56, 0x61, 0x72,
  0x69, 0x61, 0x62, 0x6c, 0x65, 0x4f, 0x70, 0x00, 0x01, 0x00, 0x00, 0x00,
  0x06, 0x00, 0x00, 0x00, 0x02, 0xff, 0xff, 0xff, 0x00, 0x00, 0x00, 0x01,
  0x10, 0x00, 0x00, 0x00, 0x10, 0x00, 0x00, 0x00, 0x05, 0x00, 0x00, 0x00,
  0x38, 0x00, 0x00, 0x00, 0x70, 0xfe, 0xff, 0xff, 0x29, 0x00, 0x00, 0x00,
  0x73, 0x65, 0x71, 0x75, 0x65, 0x6e, 0x74, 0x69, 0x61, 0x6c, 0x2f, 0x64,
  0x65, 0x6e, 0x73, 0x65, 0x5f, 0x34, 0x2f, 0x42, 0x69, 0x61, 0x73, 0x41,
  0x64, 0x64, 0x2f, 0x52, 0x65, 0x61, 0x64, 0x56, 0x61, 0x72, 0x69, 0x61,
  0x62, 0x6c, 0x65, 0x4f, 0x70, 0x00, 0x00, 0x00, 0x01, 0x00, 0x00, 0x00,
  0x05, 0x00, 0x00, 0x00, 0x56, 0xff, 0xff, 0xff, 0x00, 0x00, 0x00, 0x01,
  0x10, 0x00, 0x00, 0x00, 0x10, 0x00, 0x00, 0x00, 0x04, 0x00, 0x00, 0x00,
  0x38, 0x00, 0x00, 0x00, 0xc4, 0xfe, 0xff, 0xff, 0x29, 0x00, 0x00, 0x00,
  0x73, 0x65, 0x71, 0x75, 0x65, 0x6e, 0x74, 0x69, 0x61, 0x6c, 0x2f, 0x64,
  0x65, 0x6e, 0x73, 0x65, 0x5f, 0x33, 0x2f, 0x42, 0x69, 0x61, 0x73, 0x41,
  0x64, 0x64, 0x2f, 0x52, 0x65, 0x61, 0x64, 0x56, 0x61, 0x72, 0x69, 0x61,
  0x62, 0x6c, 0x65, 0x4f, 0x70, 0x00, 0x00, 0x00, 0x01, 0x00, 0x00, 0x00,
  0x10, 0x00, 0x00, 0x00, 0xaa, 0xff, 0xff, 0xff, 0x00, 0x00, 0x00, 0x01,
  0x10, 0x00, 0x00, 0x00, 0x10, 0x00, 0x00, 0x00, 0x03, 0x00, 0x00, 0x00,
  0x38, 0x00, 0x00, 0x00, 0x18, 0xff, 0xff, 0xff, 0x29, 0x00, 0x00, 0x00,
  0x73, 0x65, 0x71, 0x75, 0x65, 0x6e, 0x74, 0x69, 0x61, 0x6c, 0x2f, 0x64,
  0x65, 0x6e, 0x73, 0x65, 0x5f, 0x32, 0x2f, 0x42, 0x69, 0x61, 0x73, 0x41,
  0x64, 0x64, 0x2f, 0x52, 0x65, 0x61, 0x64, 0x56, 0x61, 0x72, 0x69, 0x61,
  0x62, 0x6c, 0x65, 0x4f, 0x70, 0x00, 0x00, 0x00, 0x01, 0x00, 0x00, 0x00,
  0x20, 0x00, 0x00, 0x00, 0x00, 0x00, 0x16, 0x00, 0x18, 0x00, 0x14, 0x00,
  0x00, 0x00, 0x10, 0x00, 0x0c, 0x00, 0x08, 0x00, 0x00, 0x00, 0x00, 0x00,
  0x00, 0x00, 0x07, 0x00, 0x16, 0x00, 0x00, 0x00, 0x00, 0x00, 0x00, 0x01,
  0x10, 0x00, 0x00, 0x00, 0x10, 0x00, 0x00, 0x00, 0x02, 0x00, 0x00, 0x00,
  0x38, 0x00, 0x00, 0x00, 0x84, 0xff, 0xff, 0xff, 0x29, 0x00, 0x00, 0x00,
  0x73, 0x65, 0x71, 0x75, 0x65, 0x6e, 0x74, 0x69, 0x61, 0x6c, 0x2f, 0x64,
  0x65, 0x6e, 0x73, 0x65, 0x5f, 0x31, 0x2f, 0x42, 0x69, 0x61, 0x73, 0x41,
  0x64, 0x64, 0x2f, 0x52, 0x65, 0x61, 0x64, 0x56, 0x61, 0x72, 0x69, 0x61,
  0x62, 0x6c, 0x65, 0x4f, 0x70, 0x00, 0x00, 0x00, 0x01, 0x00, 0x00, 0x00,
  0x10, 0x00, 0x00, 0x00, 0x00, 0x00, 0x16, 0x00, 0x1c, 0x00, 0x18, 0x00,
  0x00, 0x00, 0x14, 0x00, 0x10, 0x00, 0x0c, 0x00, 0x00, 0x00, 0x00, 0x00,
  0x08, 0x00, 0x07, 0x00, 0x16, 0x00, 0x00, 0x00, 0x00, 0x00, 0x00, 0x01,
  0x14, 0x00, 0x00, 0x00, 0x20, 0x00, 0x00, 0x00, 0x20, 0x00, 0x00, 0x00,
  0x01, 0x00, 0x00, 0x00, 0x3c, 0x00, 0x00, 0x00, 0x02, 0x00, 0x00, 0x00,
  0xff, 0xff, 0xff, 0xff, 0x03, 0x00, 0x00, 0x00, 0x04, 0x00, 0x04, 0x00,
  0x04, 0x00, 0x00, 0x00, 0x1d, 0x00, 0x00, 0x00, 0x73, 0x65, 0x72, 0x76,
  0x69, 0x6e, 0x67, 0x5f, 0x64, 0x65, 0x66, 0x61, 0x75, 0x6c, 0x74, 0x5f,
  0x64, 0x65, 0x6e, 0x73, 0x65, 0x5f, 0x69, 0x6e, 0x70, 0x75, 0x74, 0x3a,
  0x30, 0x00, 0x00, 0x00, 0x02, 0x00, 0x00, 0x00, 0x01, 0x00, 0x00, 0x00,
  0x03, 0x00, 0x00, 0x00, 0x01, 0x00, 0x00, 0x00, 0x10, 0x00, 0x00, 0x00,
  0x0c, 0x00, 0x0c, 0x00, 0x0b, 0x00, 0x00, 0x00, 0x00, 0x00, 0x04, 0x00,
  0x0c, 0x00, 0x00, 0x00, 0x09, 0x00, 0x00, 0x00, 0x00, 0x00, 0x00, 0x09
   };

const int g_model_len = sizeof(g_model);
